<pad>	0
<unk>	0
<s>	0
</s>	0
▁t	-0
ng	-1
▁c	-2
▁đ	-3
▁n	-4
▁v	-5
▁th	-6
▁l	-7
▁m	-8
▁ch	-9
▁,	-10
▁b	-11
▁nh	-12
▁h	-13
▁.	-14
▁k	-15
nh	-16
▁s	-17
▁tr	-18
▁kh	-19
▁ng	-20
▁g	-21
▁là	-22
ôi	-23
▁và	-24
▁r	-25
ác	-26
ông	-27
ột	-28
▁p	-29
▁d	-30
▁ph	-31
▁tôi	-32
qu	-33
▁một	-34
▁có	-35
úng	-36
▁gi	-37
ên	-38
iệ	-39
ững	-40
ời	-41
ới	-42
▁những	-43
▁chúng	-44
▁củ	-45
▁của	-46
iế	-47
ất	-48
ạn	-49
▁T	-50
▁ta	-51
▁các	-52
▁nà	-53
▁qu	-54
iề	-55
▁không	-56
ượ	-57
▁nó	-58
ong	-59
▁V	-60
ười	-61
▁đó	-62
▁x	-63
▁C	-64
iều	-65
▁người	-66
▁bạn	-67
ại	-68
▁ngh	-69
▁N	-70
▁trong	-71
▁thể	-72
ược	-73
uy	-74
▁này	-75
▁đã	-76
▁được	-77
▁như	-78
▁&	-79
ây	-80
▁họ	-81
ình	-82
ot	-83
▁với	-84
ấy	-85
quot	-86
▁cho	-87
an	-88
▁Và	-89
ay	-90
▁ra	-91
▁sự	-92
ần	-93
▁mà	-94
ải	-95
▁làm	-96
ang	-97
▁ở	-98
iên	-99
ằng	-100
▁để	-101
ực	-102
▁về	-103
▁Đ	-104
▁sẽ	-105
▁cả	-106
ái	-107
uố	-108
ân	-109
iể	-110
ơn	-111
ật	-112
iết	-113
▁điều	-114
▁thế	-115
ầu	-116
▁ho	-117
on	-118
ướ	-119
ch	-120
ến	-121
▁Ch	-122
▁từ	-123
▁khi	-124
ành	-125
ống	-126
▁B	-127
anh	-128
▁Tôi	-129
inh	-130
▁nói	-131
ao	-132
ai	-133
ết	-134
ức	-135
iện	-136
▁1	-137
▁nă	-138
▁đến	-139
ính	-140
▁?	-141
▁phải	-142
▁M	-143
iệc	-144
ước	-145
ườ	-146
▁rằng	-147
▁Nh	-148
▁vào	-149
▁gì	-150
▁đang	-151
àn	-152
ường	-153
▁việc	-154
▁H	-155
au	-156
▁lại	-157
ản	-158
ận	-159
▁thấy	-160
▁nghĩ	-161
▁độ	-162
▁rất	-163
▁cách	-164
in	-165
▁hơn	-166
âu	-167
▁nhiều	-168
ùng	-169
ươ	-170
ài	-171
▁khác	-172
▁thực	-173
iến	-174
▁đầu	-175
ương	-176
ậy	-177
▁đây	-178
▁-	-179
▁học	-180
▁con	-181
ối	-182
ạo	-183
ổi	-184
ọi	-185
▁chỉ	-186
ếu	-187
▁công	-188
▁trên	-189
▁cái	-190
▁vì	-191
▁nào	-192
▁biết	-193
▁Chúng	-194
▁chuy	-195
▁đề	-196
át	-197
ung	-198
àng	-199
iệu	-200
▁năm	-201
ũng	-202
ơi	-203
▁đi	-204
uốn	-205
▁thứ	-206
▁dụ	-207
▁thành	-208
▁K	-209
ộc	-210
▁:	-211
ắt	-212
▁--	-213
▁số	-214
áng	-215
▁cũng	-216
ích	-217
▁nhà	-218
▁Như	-219
uộc	-220
▁bị	-221
▁to	-222
▁kho	-223
▁quan	-224
ập	-225
▁S	-226
ăn	-227
▁muốn	-228
ồi	-229
úc	-230
ởi	-231
eo	-232
▁Th	-233
em	-234
▁mình	-235
ữa	-236
▁nhưng	-237
▁nhất	-238
▁Nhưng	-239
▁tạo	-240
ưở	-241
ưởng	-242
▁động	-243
án	-244
▁giới	-245
▁chính	-246
▁A	-247
ặt	-248
▁lo	-249
▁nên	-250
ấn	-251
▁vậy	-252
ày	-253
ền	-254
òn	-255
▁lớ	-256
ắc	-257
êu	-258
▁hình	-259
ưa	-260
ỏi	-261
ện	-262
iểu	-263
▁giờ	-264
▁hiện	-265
▁sống	-266
▁tiế	-267
▁tại	-268
▁nếu	-269
▁nhận	-270
▁mọi	-271
▁L	-272
ượng	-273
âm	-274
er	-275
ứng	-276
ìn	-277
▁quy	-278
▁cuộc	-279
▁thu	-280
▁cần	-281
▁2	-282
▁hay	-283
am	-284
▁tố	-285
▁tự	-286
ặc	-287
▁thì	-288
▁Tr	-289
ội	-290
ánh	-291
▁đị	-292
ôn	-293
áo	-294
00	-295
▁tất	-296
ọng	-297
▁ông	-298
òng	-299
▁ấy	-300
▁bởi	-301
en	-302
▁tới	-303
▁đồ	-304
▁theo	-305
▁bắt	-306
ẫn	-307
▁còn	-308
▁nhìn	-309
iểm	-310
▁Kh	-311
▁lớn	-312
▁cùng	-313
▁bằng	-314
▁ý	-315
▁cảm	-316
iển	-317
▁tế	-318
▁sau	-319
▁dụng	-320
▁thật	-321
▁cứ	-322
▁lên	-323
▁anh	-324
▁câu	-325
▁bản	-326
ảng	-327
▁tin	-328
▁qua	-329
▁sao	-330
▁thời	-331
▁chuyện	-332
▁trở	-333
iệm	-334
▁G	-335
▁ngày	-336
▁nhân	-337
▁cơ	-338
▁P	-339
▁bộ	-340
▁sinh	-341
ỗi	-342
ục	-343
ia	-344
ảnh	-345
ìm	-346
▁năng	-347
ạt	-348
▁sử	-349
▁trước	-350
▁phát	-351
▁nước	-352
▁đổi	-353
▁Nó	-354
iệt	-355
▁toàn	-356
▁phần	-357
ảo	-358
áy	-359
▁nơi	-360
▁gia	-361
▁do	-362
▁thông	-363
▁dự	-364
▁tìm	-365
▁nhau	-366
ar	-367
▁mới	-368
▁thay	-369
▁lu	-370
▁y	-371
▁vấn	-372
▁định	-373
▁hệ	-374
▁trường	-375
▁D	-376
▁nhiên	-377
▁tính	-378
▁Đây	-379
iễ	-380
ách	-381
▁trình	-382
▁mạ	-383
▁tốt	-384
▁tưởng	-385
▁kết	-386
ấu	-387
ăng	-388
ấp	-389
▁vật	-390
ãy	-391
ảy	-392
▁hàng	-393
▁lý	-394
▁tu	-395
▁hỏi	-396
▁Bạn	-397
ợp	-398
▁máy	-399
▁ảnh	-400
ạc	-401
út	-402
im	-403
▁hợp	-404
áp	-405
▁Đó	-406
▁mặt	-407
ắn	-408
▁tiếp	-409
▁hành	-410
▁nữa	-411
▁kinh	-412
▁gian	-413
▁thức	-414
▁hội	-415
▁vị	-416
▁tuy	-417
▁thiết	-418
▁chiế	-419
▁rồi	-420
ào	-421
▁xem	-422
▁liệu	-423
▁trọng	-424
▁hoá	-425
▁thích	-426
▁cô	-427
▁R	-428
ồn	-429
ệnh	-430
▁đồng	-431
iễn	-432
▁giải	-433
iêu	-434
▁trẻ	-435
▁lượng	-436
ắng	-437
▁hai	-438
▁đo	-439
▁ai	-440
▁thường	-441
▁bất	-442
▁vài	-443
▁đều	-444
▁Ng	-445
▁tiên	-446
▁Một	-447
▁đối	-448
▁sáng	-449
ộng	-450
ển	-451
▁hiểu	-452
▁quá	-453
▁tâm	-454
▁nay	-455
ốc	-456
▁3	-457
▁loại	-458
▁giống	-459
▁lần	-460
▁Vì	-461
▁cứu	-462
▁bao	-463
▁bệnh	-464
▁thống	-465
ịch	-466
ảm	-467
ám	-468
▁viên	-469
êm	-470
ệt	-471
▁nghệ	-472
iền	-473
▁điểm	-474
▁nghĩa	-475
▁ngo	-476
▁gọi	-477
▁Có	-478
▁nhỏ	-479
▁Vậy	-480
▁Họ	-481
▁đưa	-482
▁xu	-483
▁tương	-484
▁hoàn	-485
▁nghiệm	-486
▁quả	-487
▁tác	-488
▁đường	-489
or	-490
▁vẫn	-491
▁xảy	-492
ăm	-493
▁chiếc	-494
▁nguy	-495
▁thuật	-496
▁biệt	-497
▁dùng	-498
ẳng	-499
▁đại	-500
▁hoặc	-501
al	-502
▁bên	-503
▁từng	-504
▁dân	-505
uyền	-506
▁triển	-507
▁lúc	-508
▁chuyển	-509
iệp	-510
ọn	-511
ão	-512
▁diễn	-513
ẩn	-514
▁Điều	-515
▁trị	-516
▁quyết	-517
▁Những	-518
ừng	-519
▁cố	-520
▁cao	-521
▁nghe	-522
úp	-523
▁ăn	-524
▁Ph	-525
▁dạ	-526
▁tuyệt	-527
uốc	-528
▁mỗi	-529
▁tổ	-530
▁cầu	-531
▁khoảng	-532
uối	-533
▁vi	-534
▁Nếu	-535
▁lực	-536
▁kế	-537
▁khu	-538
▁chất	-539
▁phụ	-540
▁lời	-541
▁giáo	-542
ép	-543
ợi	-544
ầm	-545
▁giúp	-546
▁đất	-547
es	-548
óng	-549
▁em	-550
ắp	-551
▁ơn	-552
ứa	-553
▁trung	-554
▁chủ	-555
ẩm	-556
▁bảo	-557
▁nữ	-558
▁giá	-559
▁tiến	-560
os	-561
▁hết	-562
▁phòng	-563
ưới	-564
▁chưa	-565
el	-566
▁tình	-567
▁nghiên	-568
▁Q	-569
▁xuất	-570
ướng	-571
▁xe	-572
▁phí	-573
▁mang	-574
▁liên	-575
▁phân	-576
óc	-577
▁Anh	-578
▁tranh	-579
▁bài	-580
▁đơn	-581
▁não	-582
▁tập	-583
▁truyền	-584
▁tuổi	-585
▁đúng	-586
▁phương	-587
▁điện	-588
▁bình	-589
ậu	-590
▁đặt	-591
▁tượng	-592
▁tay	-593
uống	-594
▁biến	-595
▁Khi	-596
▁tiền	-597
▁giữa	-598
▁J	-599
▁yêu	-600
▁sản	-601
ét	-602
▁tiếng	-603
▁hãy	-604
ạnh	-605
▁ngay	-606
▁tho	-607
▁khả	-608
ặp	-609
▁trả	-610
ít	-611
▁bé	-612
▁khoa	-613
▁Không	-614
▁thú	-615
▁I	-616
▁bỏ	-617
▁lấy	-618
▁khó	-619
ửa	-620
et	-621
▁gần	-622
▁xã	-623
▁hoạt	-624
▁cá	-625
▁chu	-626
▁chiến	-627
▁thị	-628
▁đáng	-629
▁sách	-630
▁Trong	-631
▁5	-632
▁chí	-633
▁phẩm	-634
▁thân	-635
▁pháp	-636
ấm	-637
▁hiệu	-638
▁cuối	-639
▁đời	-640
▁chơi	-641
▁Các	-642
▁mất	-643
▁sức	-644
▁minh	-645
ọc	-646
▁Gi	-647
▁kể	-648
▁so	-649
ẫu	-650
▁Mỹ	-651
is	-652
▁mạnh	-653
▁gh	-654
▁nghiệp	-655
at	-656
▁ngoài	-657
▁4	-658
uồn	-659
ic	-660
óm	-661
▁ít	-662
▁dẫn	-663
▁khí	-664
▁đấy	-665
▁lập	-666
▁tài	-667
▁mô	-668
▁loài	-669
ừa	-670
▁kỳ	-671
▁bức	-672
▁E	-673
ậm	-674
▁tinh	-675
▁luôn	-676
▁dựng	-677
▁xây	-678
▁trí	-679
▁tiêu	-680
▁phố	-681
▁tên	-682
▁vô	-683
uyết	-684
▁văn	-685
▁cộng	-686
▁âm	-687
▁chứng	-688
▁cụ	-689
▁tử	-690
ầy	-691
▁hướng	-692
il	-693
▁nhạc	-694
▁thử	-695
ôm	-696
▁Hãy	-697
▁viết	-698
▁đâu	-699
▁chức	-700
ap	-701
▁nguyên	-702
▁kiến	-703
▁quốc	-704
▁giả	-705
ạm	-706
▁ứng	-707
▁vời	-708
▁chọn	-709
▁giản	-710
▁quyền	-711
▁chế	-712
▁ba	-713
▁đặc	-714
▁tư	-715
▁bố	-716
▁suy	-717
▁chết	-718
▁bào	-719
ạch	-720
iếm	-721
▁mạng	-722
▁W	-723
▁cấp	-724
▁bà	-725
▁vụ	-726
▁triệu	-727
ạp	-728
▁tăng	-729
ẹp	-730
▁thần	-731
▁nền	-732
▁đạo	-733
▁lẽ	-734
▁đứa	-735
▁F	-736
▁phá	-737
it	-738
▁sĩ	-739
▁khỏi	-740
▁di	-741
▁màu	-742
▁X	-743
as	-744
▁đánh	-745
ua	-746
▁mẹ	-747
▁gặp	-748
ắm	-749
▁tháng	-750
▁Thế	-751
▁dưới	-752
▁..	-753
ol	-754
▁chút	-755
▁xuống	-756
ồng	-757
▁gắng	-758
âng	-759
▁phép	-760
▁khá	-761
▁nhóm	-762
▁quanh	-763
▁mở	-764
▁dịch	-765
▁khiến	-766
▁vực	-767
▁xác	-768
▁dữ	-769
▁10	-770
▁Bây	-771
▁%	-772
▁án	-773
ãi	-774
▁chia	-775
▁bay	-776
000	-777
▁duy	-778
▁thêm	-779
▁tham	-780
▁trò	-781
▁Ô	-782
▁thuyết	-783
▁mức	-784
▁nhanh	-785
▁quay	-786
▁dạng	-787
▁Ho	-788
▁gây	-789
▁rõ	-790
▁cực	-791
▁đàn	-792
▁vọng	-793
▁nguồn	-794
▁bu	-795
▁vùng	-796
▁cảnh	-797
▁bây	-798
▁dù	-799
▁đẹp	-800
▁báo	-801
▁tục	-802
iê	-803
▁giác	-804
▁chắc	-805
▁...	-806
▁sát	-807
▁xa	-808
▁càng	-809
▁dễ	-810
▁đủ	-811
▁ví	-812
▁cây	-813
▁trang	-814
▁20	-815
▁19	-816
iêng	-817
▁nhớ	-818
▁phía	-819
▁O	-820
▁phim	-821
▁chú	-822
áu	-823
▁biểu	-824
▁hôm	-825
▁hưởng	-826
ưu	-827
▁đoạn	-828
▁chị	-829
▁chẳng	-830
▁vũ	-831
▁kì	-832
▁kiểm	-833
▁trái	-834
▁thương	-835
▁Quốc	-836
ter	-837
ủng	-838
▁dài	-839
▁Ông	-840
▁vòng	-841
▁luận	-842
le	-843
▁ngữ	-844
▁phản	-845
▁đôi	-846
▁Trung	-847
ạy	-848
▁đầy	-849
▁dục	-850
▁lợi	-851
▁kia	-852
ựa	-853
▁giảm	-854
▁thậm	-855
ằm	-856
▁thuốc	-857
▁kiếm	-858
▁ty	-859
▁vu	-860
▁vừa	-861
▁chân	-862
▁tích	-863
▁thư	-864
▁trăm	-865
▁thôi	-866
apos	-867
om	-868
and	-869
▁6	-870
ac	-871
ưỡ	-872
▁hộ	-873
▁;	-874
▁đình	-875
iếu	-876
us	-877
▁hạn	-878
▁bước	-879
▁giao	-880
àu	-881
▁lệ	-882
▁lai	-883
▁Người	-884
▁đô	-885
▁chi	-886
▁sâu	-887
▁Tại	-888
▁tỉ	-889
▁môi	-890
▁toán	-891
▁trải	-892
▁trời	-893
iềm	-894
ụp	-895
▁tồn	-896
▁diện	-897
▁rộng	-898
▁phục	-899
▁Y	-900
▁giữ	-901
▁Bởi	-902
▁thanh	-903
▁dành	-904
▁nối	-905
▁địa	-906
▁đoán	-907
▁lòng	-908
ED	-909
uốt	-910
▁thuộc	-911
ad	-912
▁riêng	-913
▁tạp	-914
▁sợ	-915
▁mắt	-916
▁mục	-917
▁đứng	-918
▁!	-919
▁nổi	-920
▁phủ	-921
▁dạy	-922
▁lã	-923
▁vệ	-924
▁thí	-925
▁vẻ	-926
▁sai	-927
▁đạt	-928
▁nghi	-929
▁căn	-930
▁thúc	-931
▁kỹ	-932
▁luật	-933
▁sẻ	-934
▁tối	-935
▁mẫu	-936
▁xung	-937
▁lịch	-938
ob	-939
▁ánh	-940
▁bàn	-941
▁đọc	-942
ặng	-943
▁lớp	-944
ur	-945
ạng	-946
▁Cảm	-947
▁kỷ	-948
▁trụ	-949
▁yếu	-950
▁khắp	-951
▁TED	-952
#9	-953
▁&#9	-954
▁vui	-955
▁trông	-956
▁khoẻ	-957
▁tiết	-958
▁chương	-959
▁ngồi	-960
▁chạy	-961
▁gái	-962
àm	-963
▁phút	-964
▁sư	-965
▁cậu	-966
▁trợ	-967
▁cuốn	-968
▁7	-969
▁mối	-970
▁sắc	-971
▁buổi	-972
ượt	-973
▁chắn	-974
▁hầu	-975
▁suốt	-976
▁9	-977
id	-978
▁kiện	-979
ew	-980
ra	-981
▁biển	-982
▁trúc	-983
▁8	-984
▁mù	-985
▁chung	-986
--	-987
▁ké	-988
▁ngôn	-989
▁mua	-990
▁doanh	-991
oo	-992
▁kiểu	-993
▁Phi	-994
▁Tất	-995
▁Vâng	-996
èo	-997
▁cửa	-998
▁vận	-999
eb	-1000
▁cánh	-1001
▁khám	-1002
▁sở	-1003
▁ngạc	-1004
▁xét	-1005
▁xúc	-1006
ốt	-1007
▁ràng	-1008
▁lâu	-1009
▁tuần	-1010
▁thoại	-1011
▁bán	-1012
▁Sau	-1013
▁hiểm	-1014
▁hồi	-1015
▁cấu	-1016
▁nhiệm	-1017
▁200	-1018
ưỡng	-1019
▁phức	-1020
▁thiên	-1021
▁kích	-1022
oi	-1023
▁cung	-1024
ĩnh	-1025
▁nằm	-1026
▁chụp	-1027
▁chuyên	-1028
▁nhập	-1029
▁la	-1030
▁Ở	-1031
ing	-1032
▁bóng	-1033
▁ngôi	-1034
▁kẻ	-1035
▁thái	-1036
▁cạnh	-1037
uyện	-1038
ữu	-1039
▁độc	-1040
uyên	-1041
▁viện	-1042
▁băng	-1043
▁hạnh	-1044
▁hữu	-1045
▁chứ	-1046
ếp	-1047
▁hoà	-1048
▁chỗ	-1049
▁ngành	-1050
▁trưởng	-1051
▁vẽ	-1052
▁khủng	-1053
▁thập	-1054
▁ích	-1055
ẵn	-1056
▁đa	-1057
ỏng	-1058
▁chuẩn	-1059
▁Xin	-1060
▁bác	-1061
▁quý	-1062
▁tra	-1063
ẩy	-1064
▁ghi	-1065
▁phúc	-1066
▁thiếu	-1067
▁Cô	-1068
▁chịu	-1069
ửi	-1070
▁Thật	-1071
▁hề	-1072
▁hoạ	-1073
▁lắng	-1074
▁xanh	-1075
▁tấm	-1076
▁hu	-1077
▁tệ	-1078
▁sẵn	-1079
▁niệm	-1080
ộn	-1081
▁Nên	-1082
▁tức	-1083
▁phạm	-1084
▁nhiêu	-1085
▁Qu	-1086
▁Sự	-1087
▁khăn	-1088
▁trai	-1089
ro	-1090
▁tái	-1091
▁đau	-1092
▁an	-1093
▁sắp	-1094
úi	-1095
▁áp	-1096
▁hơi	-1097
▁Cái	-1098
▁lạ	-1099
▁Giờ	-1100
▁dung	-1101
ón	-1102
▁Thực	-1103
▁mặc	-1104
ốn	-1105
uôi	-1106
▁chống	-1107
▁lạc	-1108
▁thất	-1109
un	-1110
▁cải	-1111
▁dựa	-1112
▁mã	-1113
▁châu	-1114
▁mong	-1115
▁đóng	-1116
▁xử	-1117
▁lựa	-1118
▁trực	-1119
▁đội	-1120
▁St	-1121
▁ban	-1122
▁bánh	-1123
▁hậu	-1124
▁cổ	-1125
▁xin	-1126
▁tổng	-1127
▁khổ	-1128
▁nội	-1129
▁30	-1130
▁New	-1131
úa	-1132
▁khắc	-1133
ưng	-1134
▁mật	-1135
▁vượt	-1136
▁da	-1137
▁nhu	-1138
▁tỷ	-1139
▁xấu	-1140
▁tầm	-1141
▁chăm	-1142
▁Do	-1143
▁ẩn	-1144
▁dần	-1145
▁gửi	-1146
▁toà	-1147
▁Làm	-1148
▁Ý	-1149
▁hứng	-1150
▁thiện	-1151
▁hạt	-1152
▁Ấ	-1153
ah	-1154
ig	-1155
▁tim	-1156
▁Để	-1157
re	-1158
▁hy	-1159
▁In	-1160
▁lưu	-1161
▁Ấn	-1162
▁danh	-1163
ín	-1164
▁chiều	-1165
▁nhiệt	-1166
▁trạng	-1167
▁lãnh	-1168
▁đột	-1169
▁w	-1170
▁100	-1171
▁dầu	-1172
▁niềm	-1173
▁tội	-1174
▁nghèo	-1175
▁nhiễ	-1176
net	-1177
▁nạn	-1178
▁ngoại	-1179
▁cận	-1180
▁sang	-1181
ồm	-1182
▁U	-1183
▁50	-1184
th	-1185
▁cha	-1186
▁chữa	-1187
▁kính	-1188
▁15	-1189
▁in	-1190
▁xo	-1191
▁ung	-1192
▁đấu	-1193
▁Châu	-1194
▁dấu	-1195
▁Độ	-1196
▁Con	-1197
▁đẩy	-1198
▁ổ	-1199
▁nỗi	-1200
▁may	-1201
▁kéo	-1202
▁hát	-1203
op	-1204
▁thách	-1205
▁ngủ	-1206
▁thủ	-1207
▁đen	-1208
▁khách	-1209
▁tắc	-1210
▁ô	-1211
▁giấy	-1212
▁ngược	-1213
▁phi	-1214
▁nuôi	-1215
▁ước	-1216
▁bại	-1217
li	-1218
ỉnh	-1219
iếp	-1220
▁Tây	-1221
▁chữ	-1222
▁quản	-1223
▁soát	-1224
▁lỗi	-1225
▁cử	-1226
▁nửa	-1227
▁lĩnh	-1228
▁tiện	-1229
ist	-1230
▁mắc	-1231
▁hoạch	-1232
▁lí	-1233
▁mơ	-1234
ẩu	-1235
ran	-1236
▁gồm	-1237
▁nhiễm	-1238
▁tốc	-1239
▁dương	-1240
▁khiển	-1241
▁tả	-1242
▁sóc	-1243
õi	-1244
▁gó	-1245
▁cắt	-1246
ternet	-1247
▁Mọi	-1248
▁hại	-1249
▁Al	-1250
▁giết	-1251
▁Tuy	-1252
▁thẳng	-1253
▁khối	-1254
▁quen	-1255
ed	-1256
▁bày	-1257
▁dây	-1258
▁quân	-1259
ri	-1260
▁ca	-1261
▁tàu	-1262
▁đông	-1263
▁đích	-1264
▁chiếu	-1265
▁đức	-1266
▁lưới	-1267
▁nhờ	-1268
▁đá	-1269
▁gen	-1270
▁thấp	-1271
ard	-1272
▁dòng	-1273
▁mê	-1274
ag	-1275
▁Â	-1276
▁Chỉ	-1277
▁cư	-1278
▁bầu	-1279
▁lái	-1280
▁ngờ	-1281
▁thi	-1282
▁cười	-1283
▁Ngh	-1284
▁đêm	-1285
▁niên	-1286
▁đổ	-1287
▁dàng	-1288
▁phóng	-1289
lo	-1290
▁khai	-1291
▁hỗ	-1292
▁sàng	-1293
ặn	-1294
▁rối	-1295
▁xếp	-1296
▁chấp	-1297
▁ngắn	-1298
▁gốc	-1299
▁tận	-1300
▁su	-1301
▁gấp	-1302
▁phong	-1303
▁đem	-1304
▁nông	-1305
▁/	-1306
▁đỡ	-1307
▁Với	-1308
▁bạo	-1309
▁giây	-1310
▁kỉ	-1311
▁lắm	-1312
▁sân	-1313
▁trách	-1314
▁gắn	-1315
▁bốn	-1316
▁cáo	-1317
▁vai	-1318
▁12	-1319
▁hồ	-1320
▁cân	-1321
▁trừ	-1322
▁bí	-1323
▁Rồi	-1324
ton	-1325
▁đợi	-1326
èn	-1327
▁ngàn	-1328
▁tôn	-1329
▁phẫu	-1330
ey	-1331
ầng	-1332
▁hài	-1333
▁thụ	-1334
▁xuyên	-1335
ab	-1336
▁thơ	-1337
▁nhảy	-1338
▁chuyến	-1339
▁hoa	-1340
▁dừng	-1341
▁siêu	-1342
1;	-1343
▁&#91;	-1344
▁kĩ	-1345
3;	-1346
▁màn	-1347
▁nghị	-1348
▁&#93;	-1349
ak	-1350
▁ký	-1351
▁lao	-1352
▁web	-1353
▁giai	-1354
▁tầng	-1355
▁đảm	-1356
▁chim	-1357
oc	-1358
▁ảo	-1359
▁tải	-1360
▁hấp	-1361
deo	-1362
▁video	-1363
▁Mar	-1364
▁phổ	-1365
▁o	-1366
av	-1367
ine	-1368
ork	-1369
▁khởi	-1370
,000	-1371
▁ngăn	-1372
▁Jo	-1373
▁tù	-1374
▁nhắc	-1375
▁rừng	-1376
▁Nam	-1377
▁chỉnh	-1378
ót	-1379
▁góc	-1380
ẳn	-1381
▁khái	-1382
▁thải	-1383
▁Internet	-1384
▁hút	-1385
▁Ai	-1386
▁hộp	-1387
▁nghiêm	-1388
▁món	-1389
▁Được	-1390
▁luyện	-1391
▁kê	-1392
▁ổn	-1393
▁nam	-1394
▁Âu	-1395
▁khuôn	-1396
▁tín	-1397
▁York	-1398
▁giàu	-1399
son	-1400
▁lá	-1401
▁cập	-1402
▁chuột	-1403
obot	-1404
▁Ví	-1405
▁Còn	-1406
▁già	-1407
ềm	-1408
▁coi	-1409
▁liệt	-1410
▁ngân	-1411
ow	-1412
▁đỏ	-1413
▁đám	-1414
ou	-1415
ill	-1416
▁tấn	-1417
▁phận	-1418
▁tuyến	-1419
▁thắng	-1420
han	-1421
▁trao	-1422
▁18	-1423
▁Hoa	-1424
▁Chúa	-1425
▁Cho	-1426
▁huỷ	-1427
▁tai	-1428
▁đảo	-1429
▁môn	-1430
▁nặng	-1431
▁hẳn	-1432
▁Trái	-1433
▁chứa	-1434
òi	-1435
▁dậy	-1436
▁mềm	-1437
▁Câu	-1438
▁vân	-1439
▁Ta	-1440
▁nóng	-1441
▁mấy	-1442
ọt	-1443
▁phù	-1444
▁Bắc	-1445
.000	-1446
▁Công	-1447
▁cháu	-1448
▁mạch	-1449
▁chóng	-1450
ịp	-1451
▁40	-1452
▁mẽ	-1453
iếng	-1454
▁mùa	-1455
▁ống	-1456
▁quyển	-1457
▁buộc	-1458
▁điển	-1459
▁ti	-1460
▁máu	-1461
▁Hiện	-1462
▁sóng	-1463
▁dưỡng	-1464
▁thiệu	-1465
▁trùng	-1466
ie	-1467
▁hạ	-1468
▁hãi	-1469
ấc	-1470
ein	-1471
▁khán	-1472
▁linh	-1473
▁cũ	-1474
▁rời	-1475
▁thảo	-1476
▁sơ	-1477
▁chủng	-1478
▁dõi	-1479
▁uống	-1480
▁điên	-1481
▁Kỳ	-1482
▁chờ	-1483
▁tồi	-1484
▁tảng	-1485
▁robot	-1486
ik	-1487
▁Từ	-1488
▁lộ	-1489
▁Nhà	-1490
▁loạn	-1491
▁lầm	-1492
▁đáp	-1493
▁buồn	-1494
▁vững	-1495
ev	-1496
um	-1497
▁mắn	-1498
▁sửa	-1499
▁Liệu	-1500
▁góp	-1501
▁thưởng	-1502
▁lồ	-1503
▁lan	-1504
▁Rất	-1505
▁khổng	-1506
▁tránh	-1507
▁tường	-1508
▁25	-1509
▁Vào	-1510
▁miễn	-1511
▁khoản	-1512
▁Thứ	-1513
▁đói	-1514
ich	-1515
▁du	-1516
▁Mỗi	-1517
▁đèn	-1518
▁lạnh	-1519
▁chàng	-1520
▁f	-1521
▁mái	-1522
▁tổn	-1523
▁ủng	-1524
▁Sh	-1525
▁bảng	-1526
▁cơn	-1527
▁trắng	-1528
ord	-1529
▁lẫn	-1530
▁tộc	-1531
▁mảnh	-1532
▁đỉnh	-1533
▁diệu	-1534
▁tờ	-1535
▁núi	-1536
ớm	-1537
▁Đông	-1538
▁Đúng	-1539
▁Hai	-1540
▁Ngày	-1541
▁phỏng	-1542
▁tiểu	-1543
uổi	-1544
▁đào	-1545
▁bề	-1546
▁trì	-1547
▁tốn	-1548
▁giọng	-1549
ùa	-1550
▁Bà	-1551
▁ấn	-1552
▁áo	-1553
▁trận	-1554
ul	-1555
▁hảo	-1556
▁quên	-1557
▁trồng	-1558
▁An	-1559
▁giỏi	-1560
▁rơi	-1561
▁quảng	-1562
▁Hồi	-1563
▁mãi	-1564
▁chạm	-1565
st	-1566
▁cỡ	-1567
▁cầm	-1568
▁kim	-1569
▁khuẩn	-1570
ph	-1571
▁bật	-1572
▁chó	-1573
▁bang	-1574
▁bền	-1575
▁vốn	-1576
ent	-1577
▁phấn	-1578
▁Chính	-1579
▁nghìn	-1580
▁đương	-1581
▁sánh	-1582
▁hôn	-1583
istan	-1584
▁tiềm	-1585
▁lương	-1586
ub	-1587
▁chấm	-1588
▁nghỉ	-1589
▁Năm	-1590
▁Đại	-1591
▁khoá	-1592
▁vàng	-1593
▁chiếm	-1594
▁mời	-1595
▁hoảng	-1596
▁nắm	-1597
▁khích	-1598
▁vợ	-1599
▁cam	-1600
▁hiển	-1601
▁11	-1602
▁Em	-1603
▁bữa	-1604
▁phối	-1605
▁ngừng	-1606
▁hi	-1607
▁hào	-1608
▁lửa	-1609
▁vỡ	-1610
▁làng	-1611
▁điệu	-1612
▁thịt	-1613
▁xương	-1614
▁hổ	-1615
▁vĩ	-1616
▁ghế	-1617
▁tách	-1618
▁đừng	-1619
▁quần	-1620
ly	-1621
ặm	-1622
io	-1623
▁nổ	-1624
▁ong	-1625
▁chuỗi	-1626
▁dường	-1627
▁rút	-1628
ib	-1629
▁chảy	-1630
▁khẩu	-1631
▁kịch	-1632
oog	-1633
▁sót	-1634
▁biên	-1635
▁đằng	-1636
▁Trên	-1637
hn	-1638
▁gió	-1639
▁sớm	-1640
▁loạt	-1641
▁thoát	-1642
la	-1643
▁mu	-1644
▁khứ	-1645
▁chậm	-1646
▁khuy	-1647
▁chồng	-1648
▁dĩ	-1649
ãn	-1650
ẹn	-1651
▁Ồ	-1652
▁sạch	-1653
▁Trước	-1654
ian	-1655
▁tàn	-1656
▁tắt	-1657
▁80	-1658
▁giấc	-1659
▁Br	-1660
oogle	-1661
▁Vấn	-1662
ứt	-1663
▁bè	-1664
▁lặp	-1665
▁nghề	-1666
▁gợi	-1667
▁suất	-1668
▁mũ	-1669
if	-1670
ựng	-1671
▁quỹ	-1672
ex	-1673
ir	-1674
ươi	-1675
ut	-1676
ói	-1677
▁Cách	-1678
ry	-1679
ack	-1680
ick	-1681
▁lỗ	-1682
▁lối	-1683
▁trưng	-1684
az	-1685
man	-1686
▁phê	-1687
▁ngại	-1688
▁Z	-1689
▁nhé	-1690
▁tán	-1691
▁túi	-1692
▁sông	-1693
▁trại	-1694
▁Ar	-1695
▁trữ	-1696
▁Google	-1697
▁Cám	-1698
▁nguyện	-1699
ud	-1700
▁Hay	-1701
▁dặm	-1702
▁kiệm	-1703
▁thước	-1704
▁To	-1705
▁viễn	-1706
▁Nói	-1707
▁đăng	-1708
▁cờ	-1709
▁cu	-1710
▁né	-1711
▁sỹ	-1712
▁Đầu	-1713
▁quang	-1714
▁u	-1715
▁Việc	-1716
▁đuổi	-1717
▁kháng	-1718
▁bụ	-1719
▁cà	-1720
▁Kho	-1721
▁bơi	-1722
▁nâng	-1723
est	-1724
▁60	-1725
ìa	-1726
▁vỏ	-1727
▁kém	-1728
▁nhắn	-1729
ip	-1730
▁ghép	-1731
ưỡi	-1732
▁thăm	-1733
▁sốt	-1734
▁phiên	-1735
▁cú	-1736
▁rẻ	-1737
▁thở	-1738
▁thảm	-1739
▁khoảnh	-1740
ĩa	-1741
ãng	-1742
▁nhật	-1743
▁tàng	-1744
▁nỗ	-1745
▁tụ	-1746
▁vết	-1747
▁Đất	-1748
▁lặng	-1749
▁thoả	-1750
▁bọn	-1751
one	-1752
▁nhẹ	-1753
▁sáu	-1754
▁hoang	-1755
▁Là	-1756
▁lọc	-1757
▁Nhật	-1758
▁xoay	-1759
ans	-1760
▁can	-1761
▁tròn	-1762
▁bờ	-1763
▁Thu	-1764
▁hùng	-1765
▁trống	-1766
ell	-1767
▁199	-1768
▁John	-1769
▁điệp	-1770
ec	-1771
▁ưu	-1772
▁Bản	-1773
bon	-1774
▁Car	-1775
▁mùi	-1776
▁đẳng	-1777
ook	-1778
▁đế	-1779
▁Lúc	-1780
▁voi	-1781
▁ngẫu	-1782
▁doạ	-1783
▁lục	-1784
▁đam	-1785
▁HI	-1786
▁bò	-1787
▁Theo	-1788
▁lành	-1789
aw	-1790
amp	-1791
▁Bộ	-1792
▁lính	-1793
ủi	-1794
▁tô	-1795
▁Ả	-1796
▁đựng	-1797
ert	-1798
▁thừa	-1799
▁thuận	-1800
ee	-1801
▁Á	-1802
▁thác	-1803
▁rác	-1804
▁Ngay	-1805
▁thuỷ	-1806
▁Ba	-1807
▁đoàn	-1808
▁HIV	-1809
▁cấy	-1810
ớt	-1811
art	-1812
▁ma	-1813
▁pr	-1814
▁Cuối	-1815
▁trích	-1816
ion	-1817
▁Lo	-1818
▁chặt	-1819
▁nhuận	-1820
▁thang	-1821
era	-1822
▁16	-1823
▁đe	-1824
▁huy	-1825
▁họp	-1826
▁đạp	-1827
▁giảng	-1828
▁tan	-1829
▁Đức	-1830
▁Af	-1831
▁Nào	-1832
▁lãng	-1833
▁lược	-1834
▁miếng	-1835
eg	-1836
ore	-1837
ườn	-1838
▁Cậu	-1839
▁cãi	-1840
▁nhựa	-1841
▁lắp	-1842
▁tật	-1843
▁khấu	-1844
▁Đừng	-1845
▁Cuộc	-1846
▁chặn	-1847
▁90	-1848
▁Mà	-1849
▁giám	-1850
▁chào	-1851
▁thai	-1852
▁ngoái	-1853
▁Lu	-1854
▁lễ	-1855
▁Hoặc	-1856
▁mừng	-1857
éo	-1858
ess	-1859
▁yên	-1860
▁đòi	-1861
▁ngang	-1862
▁Is	-1863
▁diệt	-1864
▁thận	-1865
▁huống	-1866
▁$	-1867
all	-1868
▁14	-1869
▁cản	-1870
▁mây	-1871
▁mại	-1872
▁Cũng	-1873
▁thao	-1874
▁Afg	-1875
▁Chẳng	-1876
▁hương	-1877
▁AD	-1878
▁dị	-1879
▁sổ	-1880
▁Dav	-1881
▁70	-1882
▁ko	-1883
▁tri	-1884
▁chép	-1885
▁đống	-1886
orn	-1887
▁Am	-1888
▁201	-1889
▁cát	-1890
▁sợi	-1891
▁đùa	-1892
▁Thay	-1893
▁thấu	-1894
▁vong	-1895
▁vú	-1896
▁thù	-1897
▁tràn	-1898
ớn	-1899
rus	-1900
▁cặp	-1901
▁cứng	-1902
ge	-1903
od	-1904
ash	-1905
▁tỏ	-1906
▁ám	-1907
▁cám	-1908
ff	-1909
▁Ken	-1910
▁mập	-1911
▁nhằm	-1912
▁tuyên	-1913
les	-1914
▁bom	-1915
▁mực	-1916
▁Đối	-1917
▁Nhiều	-1918
▁phiếu	-1919
▁13	-1920
▁ADN	-1921
▁khía	-1922
▁nhịp	-1923
▁súng	-1924
▁Dù	-1925
▁bi	-1926
▁bắn	-1927
▁bối	-1928
▁sụp	-1929
▁chán	-1930
▁hiếm	-1931
▁trào	-1932
▁tiêm	-1933
tr	-1934
èm	-1935
▁hà	-1936
▁tá	-1937
▁kêu	-1938
▁ngu	-1939
▁Mẹ	-1940
▁Cal	-1941
▁Chr	-1942
▁móc	-1943
▁Fran	-1944
▁ngọn	-1945
▁Afghan	-1946
ậc	-1947
▁lừa	-1948
▁prot	-1949
▁khung	-1950
iv	-1951
▁óc	-1952
▁dối	-1953
▁Bằng	-1954
▁Pháp	-1955
▁liền	-1956
▁hoàng	-1957
▁triết	-1958
▁gỗ	-1959
▁hè	-1960
▁béo	-1961
ượu	-1962
▁côn	-1963
▁cục	-1964
▁gam	-1965
▁đua	-1966
ớp	-1967
▁0	-1968
att	-1969
▁mưa	-1970
▁thờ	-1971
▁Về	-1972
▁kí	-1973
▁Phải	-1974
▁bổ	-1975
▁tí	-1976
▁Liên	-1977
▁căng	-1978
▁khảo	-1979
▁thầy	-1980
50	-1981
ide	-1982
▁bậc	-1983
▁hối	-1984
▁mạc	-1985
▁đập	-1986
▁Thái	-1987
▁thoải	-1988
▁lũ	-1989
▁nấm	-1990
▁Phần	-1991
▁ngưỡng	-1992
▁17	-1993
▁mỏ	-1994
▁chốt	-1995
ail	-1996
eet	-1997
▁ác	-1998
▁chối	-1999
▁táo	-2000
▁huấn	-2001
▁rượu	-2002
▁thuyền	-2003
yl	-2004
▁mét	-2005
▁hỗn	-2006
▁trầm	-2007
▁nhũng	-2008
▁Sẽ	-2009
▁ghét	-2010
▁vâng	-2011
NA	-2012
ers	-2013
▁mì	-2014
▁ức	-2015
▁Har	-2016
▁bảy	-2017
▁Iran	-2018
▁biện	-2019
▁khuyến	-2020
▁che	-2021
▁Thuỵ	-2022
▁song	-2023
ov	-2024
▁nút	-2025
▁đắt	-2026
▁cháy	-2027
▁truy	-2028
▁tỉnh	-2029
▁cỏ	-2030
▁Hôm	-2031
▁ngón	-2032
▁ạ	-2033
▁hắn	-2034
▁hồn	-2035
▁phán	-2036
▁Afghanistan	-2037
ock	-2038
▁thọ	-2039
▁xứng	-2040
ond	-2041
▁21	-2042
▁mạo	-2043
▁David	-2044
ya	-2045
▁Lan	-2046
▁túc	-2047
▁Nhìn	-2048
▁thiểu	-2049
ợt	-2050
log	-2051
▁ru	-2052
▁gọn	-2053
▁mũi	-2054
▁săn	-2055
▁thả	-2056
▁protein	-2057
▁cụt	-2058
▁xoá	-2059
▁giận	-2060
▁khát	-2061
▁trứng	-2062
uc	-2063
xy	-2064
▁cỗ	-2065
land	-2066
▁bông	-2067
▁dinh	-2068
▁thạch	-2069
▁Can	-2070
▁Hầu	-2071
▁Mặt	-2072
▁mai	-2073
▁khiếp	-2074
▁à	-2075
▁dày	-2076
▁rủi	-2077
▁tia	-2078
▁thuê	-2079
▁thiệp	-2080
eria	-2081
▁198	-2082
▁Par	-2083
▁Sao	-2084
▁nấu	-2085
▁đắn	-2086
▁xong	-2087
sh	-2088
▁Ok	-2089
▁mò	-2090
▁mộ	-2091
▁Đã	-2092
▁cột	-2093
▁lộn	-2094
▁binh	-2095
▁hước	-2096
▁thánh	-2097
ùi	-2098
▁TV	-2099
▁kẹ	-2100
▁bãi	-2101
▁bột	-2102
▁giành	-2103
ướt	-2104
▁ngũ	-2105
▁tóc	-2106
▁đốc	-2107
▁đốt	-2108
▁Char	-2109
▁truyện	-2110
▁i	-2111
ỗng	-2112
▁phó	-2113
▁xưa	-2114
▁đài	-2115
▁chẩn	-2116
▁răng	-2117
iệng	-2118
▁Geo	-2119
▁dọc	-2120
▁mát	-2121
▁thuần	-2122
ico	-2123
▁bạc	-2124
▁rưỡi	-2125
▁huyết	-2126
ti	-2127
▁nơ	-2128
rael	-2129
▁miền	-2130
▁chừng	-2131
ýt	-2132
ara	-2133
▁Lý	-2134
▁Sc	-2135
▁đĩa	-2136
▁tặng	-2137
▁gương	-2138
lin	-2139
▁bó	-2140
▁ro	-2141
▁ấm	-2142
▁ném	-2143
▁rắc	-2144
▁xâm	-2145
▁hiến	-2146
▁nhấn	-2147
ain	-2148
ama	-2149
enn	-2150
▁500	-2151
▁cốt	-2152
▁nhỉ	-2153
▁Đôi	-2154
▁ngài	-2155
▁vườn	-2156
▁Ad	-2157
▁xạ	-2158
▁Ban	-2159
▁khóc	-2160
▁trộn	-2161
▁24	-2162
▁Hy	-2163
▁Tổ	-2164
▁lẻ	-2165
▁quê	-2166
▁than	-2167
▁Israel	-2168
aceb	-2169
▁cẩn	-2170
▁tuỳ	-2171
iếc	-2172
▁Bra	-2173
▁dính	-2174
acebook	-2175
ada	-2176
ina	-2177
▁Cơ	-2178
▁Rob	-2179
▁rào	-2180
▁đớn	-2181
▁miệng	-2182
▁San	-2183
▁bắc	-2184
▁tuệ	-2185
▁tạm	-2186
▁thẩm	-2187
ce	-2188
▁À	-2189
▁hẹn	-2190
▁đón	-2191
▁chai	-2192
▁miêu	-2193
▁sa	-2194
▁cốc	-2195
▁mẩu	-2196
▁Giáo	-2197
▁lỏng	-2198
▁ngầm	-2199
▁phổi	-2200
ID	-2201
▁gà	-2202
▁tò	-2203
▁Dan	-2204
▁đáy	-2205
▁nhạy	-2206
▁Facebook	-2207
ug	-2208
▁đậu	-2209
▁blog	-2210
▁hiệp	-2211
▁vuông	-2212
co	-2213
ta	-2214
ốm	-2215
ite	-2216
▁ơi	-2217
▁lão	-2218
▁Chắc	-2219
▁Mich	-2220
▁bạch	-2221
▁game	-2222
▁hạng	-2223
▁thoảng	-2224
ith	-2225
ley	-2226
▁Cả	-2227
▁Thời	-2228
▁trôi	-2229
▁Calif	-2230
▁cường	-2231
ek	-2232
ep	-2233
▁ly	-2234
▁Cực	-2235
▁tây	-2236
ornia	-2237
▁kiên	-2238
▁quái	-2239
▁Chuyện	-2240
ach	-2241
▁Mĩ	-2242
▁rồ	-2243
▁dàn	-2244
▁thợ	-2245
▁hoại	-2246
▁Giống	-2247
▁California	-2248
▁DNA	-2249
▁pin	-2250
▁Bill	-2251
▁Thậm	-2252
▁hằng	-2253
▁quán	-2254
▁trắc	-2255
te	-2256
ẻo	-2257
amb	-2258
▁hứa	-2259
▁leo	-2260
▁tóm	-2261
▁chấn	-2262
▁trạm	-2263
▁nướng	-2264
ron	-2265
▁lây	-2266
▁ngã	-2267
▁giày	-2268
▁quét	-2269
▁đảng	-2270
▁giường	-2271
▁Tw	-2272
▁nét	-2273
▁ngựa	-2274
und	-2275
▁rô	-2276
▁khô	-2277
▁nho	-2278
▁đeo	-2279
▁Kinh	-2280
▁chăng	-2281
alk	-2282
▁Mc	-2283
▁Mo	-2284
▁OK	-2285
▁197	-2286
▁lưng	-2287
ẫm	-2288
▁mẻ	-2289
▁Lần	-2290
▁mãn	-2291
▁vắc	-2292
▁Cùng	-2293
▁tuyết	-2294
og	-2295
▁Col	-2296
▁Kết	-2297
▁Đến	-2298
▁đếm	-2299
▁tiếc	-2300
▁tĩnh	-2301
ass	-2302
▁kèm	-2303
▁mèo	-2304
exico	-2305
▁Nhân	-2306
▁Chris	-2307
igh	-2308
▁The	-2309
▁dán	-2310
▁Khán	-2311
▁bụng	-2312
▁ninh	-2313
▁trăng	-2314
ẫy	-2315
ụt	-2316
▁dò	-2317
▁hô	-2318
anda	-2319
▁300	-2320
▁Ira	-2321
▁gói	-2322
▁tám	-2323
▁cong	-2324
ate	-2325
▁dã	-2326
▁Bất	-2327
▁Pau	-2328
▁lăn	-2329
▁hỏng	-2330
ber	-2331
▁quà	-2332
▁Mexico	-2333
▁khuyên	-2334
▁gỡ	-2335
▁hư	-2336
▁iP	-2337
▁ép	-2338
▁giấu	-2339
▁tiệc	-2340
▁trần	-2341
▁vinh	-2342
▁email	-2343
hi	-2344
IDS	-2345
▁mờ	-2346
▁lôi	-2347
▁2000	-2348
▁Nghệ	-2349
▁thói	-2350
ùm	-2351
▁Ú	-2352
ath	-2353
tin	-2354
▁cự	-2355
▁lề	-2356
▁Hoá	-2357
▁cụm	-2358
▁dứt	-2359
stein	-2360
▁lệnh	-2361
▁Canada	-2362
urg	-2363
zil	-2364
▁gã	-2365
▁tị	-2366
▁Hội	-2367
▁heo	-2368
▁lâm	-2369
▁chìm	-2370
▁kênh	-2371
▁ngon	-2372
▁trốn	-2373
▁phiền	-2374
▁dư	-2375
▁Nga	-2376
▁bão	-2377
▁lãm	-2378
▁lặn	-2379
▁tung	-2380
ington	-2381
▁Brazil	-2382
▁ư	-2383
ler	-2384
▁Cứ	-2385
▁gõ	-2386
▁im	-2387
▁and	-2388
▁đực	-2389
▁Geor	-2390
▁buôn	-2391
▁khao	-2392
▁ngọt	-2393
ky	-2394
▁1.	-2395
▁Mặc	-2396
▁giơ	-2397
▁AIDS	-2398
▁Dĩ	-2399
▁va	-2400
▁Úc	-2401
ford	-2402
▁Vài	-2403
▁cất	-2404
▁dao	-2405
▁gián	-2406
▁mệnh	-2407
▁Điển	-2408
▁khoan	-2409
▁thăng	-2410
▁virus	-2411
ợn	-2412
ham	-2413
ind	-2414
ram	-2415
▁hố	-2416
▁cúm	-2417
▁quí	-2418
▁sàn	-2419
▁thuế	-2420
▁Trường	-2421
▁And	-2422
▁Bar	-2423
▁Ber	-2424
▁Mon	-2425
▁Tim	-2426
▁hàm	-2427
ondon	-2428
quang	-2429
▁hang	-2430
▁thổi	-2431
▁trưa	-2432
▁Sp	-2433
▁xí	-2434
▁Pal	-2435
▁bận	-2436
▁bếp	-2437
▁car	-2438
▁sữa	-2439
▁dáng	-2440
▁lang	-2441
▁xinh	-2442
▁London	-2443
ric	-2444
▁Ap	-2445
▁Rập	-2446
▁lõi	-2447
▁bùng	-2448
▁tươi	-2449
▁Kenya	-2450
ượn	-2451
▁Ed	-2452
▁Le	-2453
▁Gần	-2454
▁Học	-2455
▁Jam	-2456
▁bụi	-2457
▁làn	-2458
▁tân	-2459
▁dược	-2460
▁cấm	-2461
▁khỉ	-2462
▁nảy	-2463
▁rét	-2464
▁san	-2465
▁Tiếp	-2466
▁ngắm	-2467
▁quát	-2468
ma	-2469
ộm	-2470
ann	-2471
▁Ben	-2472
▁hải	-2473
▁phì	-2474
▁sưu	-2475
▁thẻ	-2476
▁tuý	-2477
▁tắm	-2478
▁camera	-2479
▁–	-2480
ếch	-2481
▁tủ	-2482
▁196	-2483
▁Ros	-2484
▁oxy	-2485
▁liều	-2486
▁lường	-2487
▁CO	-2488
▁ưa	-2489
itter	-2490
▁cưới	-2491
▁muỗi	-2492
▁thịnh	-2493
▁Khoảng	-2494
iz	-2495
▁Bl	-2496
▁400	-2497
▁Bao	-2498
▁Bài	-2499
▁Bức	-2500
▁rãi	-2501
▁say	-2502
▁sơn	-2503
▁Iraq	-2504
▁chúa	-2505
▁khôn	-2506
▁lướt	-2507
▁tháp	-2508
ins	-2509
▁nở	-2510
▁Trời	-2511
▁nhẫn	-2512
▁thùng	-2513
▁trượt	-2514
▁150	-2515
▁kín	-2516
▁nan	-2517
▁Cộng	-2518
▁Paul	-2519
▁ngập	-2520
▁ngốc	-2521
▁nhắm	-2522
▁thua	-2523
▁thám	-2524
▁trục	-2525
▁Thiên	-2526
▁thỉnh	-2527
DP	-2528
▁Be	-2529
▁May	-2530
▁bốt	-2531
▁nốt	-2532
▁pha	-2533
▁phú	-2534
▁châm	-2535
▁feet	-2536
▁giam	-2537
▁nàng	-2538
▁thính	-2539
▁tướng	-2540
▁GDP	-2541
▁dám	-2542
▁xóm	-2543
▁quãng	-2544
▁Bố	-2545
▁cừ	-2546
▁dắt	-2547
▁Viện	-2548
▁khớp	-2549
▁Twitter	-2550
▁sl	-2551
▁Gre	-2552
▁cậy	-2553
▁cuộn	-2554
▁nắng	-2555
▁phái	-2556
▁sung	-2557
▁thiệt	-2558
SA	-2559
by	-2560
ướp	-2561
▁bơ	-2562
▁Hơn	-2563
▁rau	-2564
▁toả	-2565
▁lông	-2566
▁phạt	-2567
▁tháo	-2568
▁gấu	-2569
▁hầm	-2570
▁mạn	-2571
▁trà	-2572
▁Wash	-2573
▁bong	-2574
▁nhãn	-2575
ony	-2576
ood	-2577
▁Ab	-2578
▁Oh	-2579
▁nọ	-2580
▁vở	-2581
▁Ôi	-2582
▁Ang	-2583
▁Bos	-2584
▁Tin	-2585
▁dãy	-2586
▁khơi	-2587
▁đuôi	-2588
▁Thông	-2589
▁cưỡng	-2590
▁tuyển	-2591
olf	-2592
ver	-2593
▁Hệ	-2594
▁Ein	-2595
▁Ngo	-2596
▁Bang	-2597
▁Bình	-2598
▁Thành	-2599
▁Tương	-2600
▁chước	-2601
▁e	-2602
ana	-2603
▁lò	-2604
▁Chủ	-2605
▁Nig	-2606
▁Này	-2607
▁You	-2608
▁bớt	-2609
▁lát	-2610
▁nhở	-2611
▁thô	-2612
▁đâm	-2613
▁thuẫn	-2614
▁Einstein	-2615
ren	-2616
▁Sm	-2617
▁Tự	-2618
▁Thử	-2619
▁chở	-2620
▁hệt	-2621
▁chìa	-2622
▁muộn	-2623
▁ranh	-2624
▁thưa	-2625
▁Dương	-2626
he	-2627
▁log	-2628
▁lùi	-2629
▁mệt	-2630
▁chục	-2631
▁điêu	-2632
▁Tiếng	-2633
ne	-2634
oy	-2635
▁j	-2636
ael	-2637
ênh	-2638
▁Số	-2639
▁mỹ	-2640
▁hoả	-2641
▁hòn	-2642
▁lạm	-2643
▁Ngài	-2644
▁Chiến	-2645
▁slide	-2646
end	-2647
▁Hà	-2648
▁nợ	-2649
▁ồn	-2650
▁Hoả	-2651
▁Mục	-2652
▁Nha	-2653
▁Wil	-2654
▁bút	-2655
▁cac	-2656
▁vua	-2657
▁đồi	-2658
▁Stev	-2659
▁ngực	-2660
▁thôn	-2661
▁phẳng	-2662
xi	-2663
ort	-2664
ươn	-2665
▁bọ	-2666
▁sứ	-2667
▁Cập	-2668
▁Pet	-2669
▁cởi	-2670
▁múa	-2671
▁đới	-2672
▁gánh	-2673
▁khúc	-2674
▁trấn	-2675
▁Franc	-2676
▁Washington	-2677
za	-2678
ộp	-2679
▁MI	-2680
▁Bảo	-2681
▁kịp	-2682
▁mấu	-2683
▁sốc	-2684
▁Quan	-2685
▁George	-2686
▁carbon	-2687
ka	-2688
een	-2689
ier	-2690
▁rễ	-2691
▁mỏi	-2692
▁vải	-2693
▁Khoa	-2694
▁TEDx	-2695
▁rung	-2696
ald	-2697
ett	-2698
ike	-2699
ola	-2700
▁Cr	-2701
site	-2702
▁Jon	-2703
ander	-2704
▁Rich	-2705
▁Thom	-2706
▁hãng	-2707
▁khôi	-2708
▁Chiếc	-2709
▁duyệt	-2710
▁nghiện	-2711
▁Charles	-2712
up	-2713
are	-2714
▁Dự	-2715
▁Pr	-2716
▁Wik	-2717
▁cối	-2718
▁hưu	-2719
▁ráp	-2720
▁Hàng	-2721
▁Phil	-2722
▁thâm	-2723
▁ngoan	-2724
▁nghịch	-2725
▁Nigeria	-2726
▁website	-2727
▁internet	-2728
.5	-2729
30	-2730
▁1,	-2731
▁Hình	-2732
▁Loại	-2733
▁hồng	-2734
▁nhặt	-2735
▁khiếm	-2736
▁khẳng	-2737
▁lưỡng	-2738
▁a	-2739
inc	-2740
lex	-2741
▁Dar	-2742
▁Thổ	-2743
▁Tốt	-2744
▁lật	-2745
▁mâu	-2746
▁tha	-2747
▁vây	-2748
▁địch	-2749
▁cuồng	-2750
▁nhiếp	-2751
én	-2752
osh	-2753
▁El	-2754
▁La	-2755
▁Ma	-2756
▁đố	-2757
▁Bro	-2758
▁MIT	-2759
▁gan	-2760
▁hẹp	-2761
▁sắt	-2762
▁2008	-2763
▁Bệnh	-2764
▁Nghe	-2765
▁Toàn	-2766
▁khói	-2767
▁phím	-2768
▁Thượng	-2769
▁cacbon	-2770
ast	-2771
ube	-2772
▁35	-2773
▁Na	-2774
▁Ne	-2775
▁Rõ	-2776
▁Pak	-2777
▁Quá	-2778
▁rắn	-2779
▁1000	-2780
▁Adam	-2781
▁Hiệp	-2782
▁vươn	-2783
▁Michael	-2784
iel	-2785
▁45	-2786
▁Di	-2787
▁Los	-2788
▁Sch	-2789
▁đàm	-2790
▁đáo	-2791
▁Tình	-2792
▁mảng	-2793
▁khuyết	-2794
▁Francis	-2795
PS	-2796
ok	-2797
pe	-2798
yn	-2799
ela	-2800
▁đẻ	-2801
▁cừu	-2802
▁gối	-2803
▁non	-2804
▁rửa	-2805
▁str	-2806
▁long	-2807
▁đoan	-2808
▁khoái	-2809
òm	-2810
ằn	-2811
▁He	-2812
edia	-2813
ight	-2814
▁Tên	-2815
▁cạn	-2816
▁tần	-2817
▁Thomas	-2818
▁stress	-2819
▁Pakistan	-2820
ica	-2821
▁Re	-2822
olly	-2823
ward	-2824
▁Bắt	-2825
▁dâm	-2826
▁dạo	-2827
▁dải	-2828
▁dẻo	-2829
▁mồi	-2830
▁sạn	-2831
▁chín	-2832
▁cướp	-2833
▁manh	-2834
▁màng	-2835
▁Ju	-2836
ling	-2837
▁Bên	-2838
▁Cha	-2839
▁Máy	-2840
▁lận	-2841
▁vẹn	-2842
▁đạn	-2843
▁Ngân	-2844
▁hack	-2845
▁lệch	-2846
▁treo	-2847
▁trân	-2848
▁Thiết	-2849
20	-2850
ve	-2851
eph	-2852
ụng	-2853
▁75	-2854
▁PM	-2855
▁Der	-2856
▁Dân	-2857
▁Fre	-2858
▁bơm	-2859
▁cắm	-2860
▁lợn	-2861
▁đạc	-2862
▁Tiến	-2863
▁Richard	-2864
apt	-2865
▁Ob	-2866
▁Wh	-2867
▁lờ	-2868
▁cắp	-2869
▁đền	-2870
▁Mark	-2871
▁tông	-2872
▁vĩnh	-2873
▁Haiti	-2874
▁quyên	-2875
ami	-2876
ice	-2877
lan	-2878
▁Je	-2879
▁de	-2880
ound	-2881
▁GPS	-2882
▁Hàn	-2883
▁bắp	-2884
▁bọc	-2885
▁ham	-2886
▁kẹo	-2887
▁kẹt	-2888
▁2010	-2889
▁buýt	-2890
▁gene	-2891
▁kiệt	-2892
▁tuân	-2893
▁Frank	-2894
▁khiêu	-2895
▁nhàng	-2896
▁khuynh	-2897
ld	-2898
ox	-2899
com	-2900
lie	-2901
lip	-2902
lor	-2903
▁At	-2904
▁Gr	-2905
▁Kể	-2906
▁NA	-2907
▁co	-2908
▁sh	-2909
▁Âm	-2910
▁Nơi	-2911
▁Tom	-2912
▁bia	-2913
▁dọn	-2914
▁lấp	-2915
▁mòn	-2916
▁chúc	-2917
▁nhầm	-2918
▁huyền	-2919
ark	-2920
ile	-2921
▁23	-2922
▁nề	-2923
▁đỗ	-2924
▁Cam	-2925
▁Phụ	-2926
▁mic	-2927
▁tựa	-2928
▁đai	-2929
ation	-2930
ester	-2931
▁giãn	-2932
▁thắc	-2933
▁Robert	-2934
acc	-2935
▁ga	-2936
▁hã	-2937
▁mồ	-2938
▁vé	-2939
▁Chà	-2940
▁rập	-2941
▁trú	-2942
▁vay	-2943
▁xám	-2944
▁lũng	-2945
▁mười	-2946
ft	-2947
org	-2948
rid	-2949
rút	-2950
win	-2951
ịnh	-2952
▁dở	-2953
▁vỗ	-2954
▁amp	-2955
▁cựu	-2956
▁mọc	-2957
▁thổ	-2958
▁Mình	-2959
▁chăn	-2960
▁mỏng	-2961
▁thép	-2962
▁Angel	-2963
▁cương	-2964
▁thằng	-2965
RI	-2966
▁Đa	-2967
▁Lạp	-2968
▁Mal	-2969
▁dốc	-2970
▁nêu	-2971
▁đợt	-2972
▁Nước	-2973
▁Tổng	-2974
▁khéo	-2975
▁ngừa	-2976
▁James	-2977
▁Tuyệt	-2978
▁vượng	-2979
vi	-2980
▁bá	-2981
▁Hải	-2982
▁hôi	-2983
▁nát	-2984
▁sôi	-2985
▁Harv	-2986
▁dũng	-2987
▁lượt	-2988
▁Nghiên	-2989
ity	-2990
old	-2991
▁Cl	-2992
▁bù	-2993
▁mỉ	-2994
▁rẽ	-2995
▁st	-2996
amin	-2997
▁chợ	-2998
▁qui	-2999
▁xôi	-3000
▁Điểm	-3001
▁Đồng	-3002
▁thoái	-3003
ũi	-3004
▁ồ	-3005
ney	-3006
ờng	-3007
hone	-3008
▁194	-3009
▁mày	-3010
▁nản	-3011
▁Scot	-3012
▁bỗng	-3013
▁hoài	-3014
▁hung	-3015
▁hạch	-3016
▁phác	-3017
ago	-3018
ner	-3019
ates	-3020
▁Gia	-3021
▁Quý	-3022
▁chả	-3023
▁dội	-3024
▁nén	-3025
▁rad	-3026
▁2007	-3027
▁Sinh	-3028
▁Talk	-3029
▁bách	-3030
▁thầm	-3031
▁trật	-3032
▁vang	-3033
pt	-3034
ẳm	-3035
ple	-3036
▁99	-3037
▁võ	-3038
▁đẽ	-3039
▁Bác	-3040
▁Sam	-3041
▁bấy	-3042
▁gác	-3043
▁men	-3044
▁van	-3045
▁xíu	-3046
▁chua	-3047
▁tiễn	-3048
▁trừu	-3049
▁xăng	-3050
▁Carol	-3051
▁Phương	-3052
▁nghiệt	-3053
uck	-3054
▁Or	-3055
▁Se	-3056
▁nụ	-3057
▁Gab	-3058
▁Ind	-3059
▁bìa	-3060
▁hụt	-3061
▁pho	-3062
▁Alex	-3063
▁cổng	-3064
▁muối	-3065
▁Obama	-3066
▁iPhone	-3067
me	-3068
low	-3069
▁lơ	-3070
▁đà	-3071
berg	-3072
▁lắc	-3073
▁ruồi	-3074
▁thẳm	-3075
▁xích	-3076
ipedia	-3077
▁Smith	-3078
▁Steve	-3079
▁Thánh	-3080
ủa	-3081
ush	-3082
van	-3083
▁ốc	-3084
burg	-3085
imer	-3086
▁Nob	-3087
▁Qua	-3088
▁Trẻ	-3089
▁hóc	-3090
▁lúa	-3091
▁súc	-3092
▁vụn	-3093
▁NASA	-3094
▁giặt	-3095
▁mộng	-3096
▁soạn	-3097
▁trộm	-3098
▁Trans	-3099
cel	-3100
ern	-3101
ish	-3102
iss	-3103
umb	-3104
▁of	-3105
▁rũ	-3106
▁Đi	-3107
▁ốm	-3108
atch	-3109
▁Rom	-3110
▁bướ	-3111
▁gũi	-3112
▁the	-3113
▁tím	-3114
▁Chào	-3115
▁chợt	-3116
▁mươi	-3117
▁xướng	-3118
▁xưởng	-3119
▁Wikipedia	-3120
ez	-3121
eth	-3122
per	-3123
toc	-3124
▁22	-3125
▁Co	-3126
▁al	-3127
bert	-3128
thal	-3129
▁---	-3130
▁Big	-3131
▁Hoà	-3132
▁Man	-3133
▁Sah	-3134
▁chẽ	-3135
▁hét	-3136
▁độn	-3137
▁ếch	-3138
▁mượn	-3139
▁ngẫm	-3140
▁Tưởng	-3141
▁tráng	-3142
▁Martin	-3143
▁khoáng	-3144
▁Harvard	-3145
ny	-3146
ros	-3147
▁dỗ	-3148
▁đệ	-3149
▁Chị	-3150
▁Lấy	-3151
▁bẩn	-3152
▁lân	-3153
▁ván	-3154
▁cược	-3155
▁cống	-3156
▁nhào	-3157
▁quặc	-3158
▁trán	-3159
▁Derek	-3160
▁Nghĩa	-3161
▁Paris	-3162
▁quyến	-3163
▁Darwin	-3164
▁nhường	-3165
eh	-3166
ary	-3167
oth	-3168
▁hò	-3169
▁li	-3170
icon	-3171
▁Giá	-3172
▁bám	-3173
▁bấm	-3174
▁gìn	-3175
▁lều	-3176
▁mến	-3177
▁2009	-3178
▁lánh	-3179
▁nhạt	-3180
▁nồng	-3181
▁Điện	-3182
▁Giọng	-3183
▁Nobel	-3184
▁hacker	-3185
▁Angeles	-3186
▁Francisco	-3187
mp	-3188
ali	-3189
eah	-3190
ota	-3191
▁36	-3192
▁sô	-3193
▁xỉ	-3194
▁ôm	-3195
oran	-3196
▁Mad	-3197
▁Tor	-3198
▁sáo	-3199
▁sắm	-3200
attan	-3201
tocin	-3202
▁hiếp	-3203
▁mãnh	-3204
▁ruột	-3205
▁rỗng	-3206
,5	-3207
PA	-3208
ck	-3209
ix	-3210
dro	-3211
ink	-3212
▁mổ	-3213
▁nô	-3214
▁oh	-3215
azon	-3216
ones	-3217
▁Cop	-3218
▁Cần	-3219
▁Web	-3220
▁cài	-3221
▁luỹ	-3222
▁Đấy	-3223
▁Loài	-3224
▁chôn	-3225
▁lùng	-3226
▁nhện	-3227
▁phun	-3228
▁thấm	-3229
▁Green	-3230
▁logic	-3231
▁radio	-3232
▁Nguyên	-3233
ca	-3234
igg	-3235
udio	-3236
▁Jer	-3237
▁Quỹ	-3238
aptop	-3239
▁2005	-3240
▁Cháu	-3241
▁giọt	-3242
▁lồng	-3243
▁vạch	-3244
▁xuân	-3245
▁thung	-3246
▁Sahara	-3247
ace	-3248
cri	-3249
rop	-3250
tor	-3251
▁Gu	-3252
▁cọ	-3253
▁lỡ	-3254
▁rã	-3255
▁vờ	-3256
▁Leg	-3257
▁Nhĩ	-3258
▁Tal	-3259
▁Wor	-3260
▁hãm	-3261
▁sét	-3262
▁xăm	-3263
▁Manh	-3264
▁chọc	-3265
▁inch	-3266
▁Ngoài	-3267
▁Peter	-3268
▁huynh	-3269
▁triệt	-3270
▁Amazon	-3271
▁Christ	-3272
▁thượng	-3273
ef	-3274
tô	-3275
ue	-3276
yr	-3277
age	-3278
azz	-3279
oph	-3280
▁27	-3281
▁Sĩ	-3282
▁Lib	-3283
▁bóc	-3284
▁léo	-3285
▁run	-3286
▁vòi	-3287
cript	-3288
raham	-3289
▁Giải	-3290
▁Stan	-3291
▁lăng	-3292
▁móng	-3293
▁tivi	-3294
heimer	-3295
▁Manhattan	-3296
▁Rw	-3297
▁tê	-3298
▁uy	-3299
▁đc	-3300
▁ẩm	-3301
wood	-3302
▁Alz	-3303
▁Sức	-3304
▁quạ	-3305
▁tựu	-3306
▁Eric	-3307
▁vịnh	-3308
ilicon	-3309
▁oxytocin	-3310
▁Alzheimer	-3311
ss	-3312
ts	-3313
uk	-3314
▁Ừ	-3315
ala	-3316
ens	-3317
imb	-3318
▁Ah	-3319
▁En	-3320
▁Tư	-3321
▁bê	-3322
▁mỳ	-3323
▁ái	-3324
▁Đo	-3325
line	-3326
▁Haw	-3327
▁Tác	-3328
▁Ven	-3329
▁Wal	-3330
▁kìa	-3331
▁tuỷ	-3332
▁vứt	-3333
icago	-3334
▁Jack	-3335
▁chằm	-3336
▁chớp	-3337
▁Đảng	-3338
▁khiêm	-3339
▁chuông	-3340
▁Chicago	-3341
SD	-3342
to	-3343
mer	-3344
oca	-3345
uss	-3346
▁26	-3347
▁Cá	-3348
▁II	-3349
▁km	-3350
▁xà	-3351
▁250	-3352
▁600	-3353
▁Sub	-3354
▁bốc	-3355
▁nếp	-3356
▁đóm	-3357
oster	-3358
▁1990	-3359
▁Bước	-3360
▁Thưa	-3361
▁lưỡi	-3362
▁ngẩn	-3363
▁võng	-3364
▁luồng	-3365
▁nhiễu	-3366
▁Đường	-3367
▁Boston	-3368
▁Rwanda	-3369
▁Thường	-3370
▁laptop	-3371
mm	-3372
air	-3373
iễu	-3374
tit	-3375
xin	-3376
▁Ac	-3377
▁MT	-3378
rian	-3379
▁000	-3380
▁Joe	-3381
▁Văn	-3382
▁bồi	-3383
▁dịp	-3384
▁lui	-3385
▁ron	-3386
▁Chưa	-3387
▁Luật	-3388
▁gạch	-3389
▁thắt	-3390
▁đoạt	-3391
▁hoành	-3392
▁kiêng	-3393
▁ngưng	-3394
▁sọ	-3395
▁ấu	-3396
▁Gal	-3397
▁Lat	-3398
▁Sim	-3399
▁Thì	-3400
▁Van	-3401
▁Xem	-3402
▁gậy	-3403
▁ngớ	-3404
▁tuỵ	-3405
▁Đơn	-3406
▁đúc	-3407
▁Coca	-3408
▁Giai	-3409
▁Higg	-3410
▁Mont	-3411
▁Thêm	-3412
▁cent	-3413
▁nano	-3414
▁nhóc	-3415
▁vacc	-3416
▁đuối	-3417
▁đôla	-3418
▁khoăn	-3419
ger	-3420
our	-3421
rew	-3422
ure	-3423
ust	-3424
ửng	-3425
▁2.	-3426
▁bể	-3427
▁mỡ	-3428
▁rỉ	-3429
▁xé	-3430
liam	-3431
▁Del	-3432
▁Jim	-3433
▁MRI	-3434
▁Per	-3435
▁Trở	-3436
▁hít	-3437
▁hận	-3438
▁Đứa	-3439
▁đậm	-3440
athan	-3441
ridge	-3442
▁Hans	-3443
▁Phát	-3444
▁golf	-3445
▁hoãn	-3446
▁Apple	-3447
▁Gabby	-3448
▁hydro	-3449
▁William	-3450
ât	-3451
ẽn	-3452
ida	-3453
▁95	-3454
▁CE	-3455
▁Tu	-3456
▁Uy	-3457
▁vả	-3458
▁Hen	-3459
▁Hợp	-3460
▁Jan	-3461
▁Vật	-3462
▁ghê	-3463
▁nhủ	-3464
▁nàn	-3465
▁Hành	-3466
▁Quay	-3467
▁hổng	-3468
▁ngột	-3469
▁tiệm	-3470
▁Động	-3471
titles	-3472
▁Gates	-3473
▁Subtitles	-3474
▁Transcript	-3475
ja	-3476
ire	-3477
len	-3478
▁Ox	-3479
▁Sw	-3480
▁on	-3481
emen	-3482
iano	-3483
lick	-3484
uyến	-3485
▁Bab	-3486
▁Chú	-3487
▁Khá	-3488
▁Mic	-3489
▁War	-3490
▁băn	-3491
▁bầy	-3492
▁gom	-3493
▁gãy	-3494
▁lam	-3495
▁quỷ	-3496
▁vội	-3497
igami	-3498
▁Brow	-3499
▁Park	-3500
▁Việt	-3501
▁canh	-3502
▁giật	-3503
▁điền	-3504
▁Phòng	-3505
▁Times	-3506
▁nghẽn	-3507
▁nhánh	-3508
▁chuyền	-3509
esh	-3510
▁32	-3511
▁Ze	-3512
▁195	-3513
▁Bon	-3514
▁Mah	-3515
▁Màu	-3516
▁Nhờ	-3517
▁bẩm	-3518
▁vất	-3519
▁2004	-3520
▁2006	-3521
▁Okay	-3522
▁gien	-3523
▁giáp	-3524
▁hoan	-3525
▁ương	-3526
▁Koran	-3527
▁micro	-3528
ini	-3529
▁65	-3530
▁Sử	-3531
▁bẻ	-3532
▁bồ	-3533
▁or	-3534
lian	-3535
ster	-3536
▁Bur	-3537
▁Giả	-3538
▁Hắn	-3539
▁Nan	-3540
▁Nor	-3541
▁Pat	-3542
▁Tas	-3543
▁Tes	-3544
▁Wat	-3545
▁dại	-3546
▁dệt	-3547
▁mầm	-3548
▁phô	-3549
▁súp	-3550
▁đốm	-3551
▁Flor	-3552
▁chày	-3553
▁trúng	-3554
▁Palest	-3555
▁thiêng	-3556
di	-3557
car	-3558
enz	-3559
lar	-3560
oft	-3561
▁28	-3562
▁xứ	-3563
▁ào	-3564
▁Rio	-3565
▁lột	-3566
▁ngư	-3567
▁nhị	-3568
▁nón	-3569
▁rạp	-3570
▁vòm	-3571
▁vặt	-3572
▁Đặc	-3573
inson	-3574
▁1960	-3575
▁1970	-3576
▁Hoàn	-3577
▁Star	-3578
▁Tony	-3579
▁hông	-3580
▁phốt	-3581
▁tùng	-3582
▁xoắn	-3583
▁xách	-3584
▁đụng	-3585
▁phiêu	-3586
▁sướng	-3587
ale	-3588
uel	-3589
▁My	-3590
▁Su	-3591
alia	-3592
ongo	-3593
ther	-3594
▁Kim	-3595
▁Mac	-3596
▁Nền	-3597
▁Vẫn	-3598
▁ghé	-3599
▁que	-3600
▁rìa	-3601
▁rộn	-3602
▁uốn	-3603
▁Đạo	-3604
▁2003	-3605
▁2011	-3606
▁Gand	-3607
▁King	-3608
▁Quân	-3609
▁Tính	-3610
▁tịch	-3611
▁vương	-3612
▁Howard	-3613
der	-3614
omb	-3615
▁De	-3616
▁Me	-3617
▁Ug	-3618
▁kề	-3619
▁lọ	-3620
izza	-3621
▁120	-3622
▁Don	-3623
▁Não	-3624
▁cáp	-3625
▁dập	-3626
▁mốc	-3627
▁ngụ	-3628
▁tôm	-3629
erson	-3630
▁Camb	-3631
▁biếm	-3632
▁clip	-3633
▁cảng	-3634
▁khan	-3635
▁khen	-3636
▁nhấp	-3637
▁thắn	-3638
▁thốt	-3639
▁Henry	-3640
▁Yemen	-3641
▁khùng	-3642
▁origami	-3643
▁vaccine	-3644
we	-3645
int	-3646
ium	-3647
▁Nữ	-3648
▁ax	-3649
▁el	-3650
▁kẽ	-3651
▁kệ	-3652
▁ủi	-3653
Tube	-3654
outh	-3655
▁Lad	-3656
▁Tan	-3657
▁búa	-3658
▁bực	-3659
▁kem	-3660
▁kẹp	-3661
▁lau	-3662
▁đệm	-3663
▁Phật	-3664
▁Sing	-3665
▁chíp	-3666
▁chóc	-3667
▁củng	-3668
▁nhàm	-3669
▁sửng	-3670
▁Congo	-3671
▁World	-3672
▁khoai	-3673
▁piano	-3674
▁Tasman	-3675
▁thoáng	-3676
▁YouTube	-3677
dy	-3678
▁CA	-3679
▁Cy	-3680
▁mớ	-3681
▁rỡ	-3682
hana	-3683
mpic	-3684
▁Jos	-3685
▁Kar	-3686
▁Mat	-3687
▁Mùa	-3688
▁Sáu	-3689
▁dồn	-3690
▁gạt	-3691
▁hái	-3692
▁mép	-3693
▁phe	-3694
▁tam	-3695
▁tăm	-3696
▁vịt	-3697
▁xộn	-3698
▁....	-3699
▁3000	-3700
▁Bush	-3701
▁Ford	-3702
▁huýt	-3703
▁phơi	-3704
▁sườn	-3705
▁thơm	-3706
▁trùm	-3707
▁đinh	-3708
▁Arist	-3709
▁Brian	-3710
▁Ghana	-3711
▁Micros	-3712
▁Uganda	-3713
▁choáng	-3714
▁chướng	-3715
▁studio	-3716
go	-3717
lu	-3718
na	-3719
▁Ư	-3720
ild	-3721
itz	-3722
lob	-3723
lyn	-3724
ris	-3725
▁FG	-3726
▁Kì	-3727
▁Pl	-3728
▁Vô	-3729
▁Đỏ	-3730
Cola	-3731
arah	-3732
iban	-3733
ille	-3734
yria	-3735
▁Gen	-3736
▁Her	-3737
▁LED	-3738
▁Toà	-3739
▁Tạo	-3740
▁dai	-3741
▁dịu	-3742
▁gai	-3743
▁môt	-3744
▁rỗi	-3745
▁đom	-3746
▁Ngôi	-3747
▁Rằng	-3748
▁bướm	-3749
▁ngục	-3750
▁nhét	-3751
▁trèo	-3752
▁tạng	-3753
▁tống	-3754
▁Higgs	-3755
▁Syria	-3756
▁Tháng	-3757
▁thiền	-3758
▁triều	-3759
▁10,000	-3760
▁Oxford	-3761
▁Aristot	-3762
cô	-3763
ía	-3764
ẹo	-3765
ịt	-3766
▁Í	-3767
ect	-3768
eda	-3769
lad	-3770
unt	-3771
▁33	-3772
▁85	-3773
▁Bu	-3774
▁Mu	-3775
▁NL	-3776
▁am	-3777
▁sc	-3778
▁âu	-3779
▁Khu	-3780
▁Quy	-3781
▁Tài	-3782
▁hàn	-3783
▁mưu	-3784
▁ngừ	-3785
▁râu	-3786
▁rèn	-3787
▁1950	-3788
▁Lego	-3789
▁Wall	-3790
▁gieo	-3791
▁khẩn	-3792
▁tang	-3793
▁trọn	-3794
▁túng	-3795
▁phiến	-3796
▁Aristotle	-3797
▁Cambridge	-3798
▁Microsoft	-3799
af	-3800
kg	-3801
ớc	-3802
ati	-3803
nes	-3804
ten	-3805
▁Un	-3806
▁Vũ	-3807
▁dê	-3808
etro	-3809
itch	-3810
ower	-3811
ropy	-3812
▁Amy	-3813
▁bón	-3814
▁dol	-3815
▁hâm	-3816
▁trễ	-3817
▁tẩy	-3818
▁vần	-3819
▁đục	-3820
▁Giới	-3821
▁Josh	-3822
▁Mand	-3823
▁hưng	-3824
▁Brook	-3825
ba	-3826
de	-3827
oh	-3828
ze	-3829
úm	-3830
ếm	-3831
ịa	-3832
ốp	-3833
ụi	-3834
ant	-3835
ari	-3836
ấng	-3837
▁Go	-3838
▁Os	-3839
▁SW	-3840
▁Tế	-3841
▁ac	-3842
▁hé	-3843
▁Ít	-3844
ania	-3845
▁Bob	-3846
▁Lak	-3847
▁Mel	-3848
▁Oly	-3849
▁Sal	-3850
▁Ser	-3851
▁Vir	-3852
▁bộc	-3853
▁cóc	-3854
▁cồn	-3855
▁dơi	-3856
▁dẹp	-3857
▁nhi	-3858
▁vạn	-3859
▁vọt	-3860
▁xay	-3861
▁Địa	-3862
▁Đột	-3863
▁đòn	-3864
▁2001	-3865
▁Rock	-3866
▁banh	-3867
▁jazz	-3868
▁show	-3869
▁Hoàng	-3870
▁Ngược	-3871
▁buồng	-3872
▁chiêm	-3873
▁phồng	-3874
▁pizza	-3875
▁trừng	-3876
▁10.000	-3877
▁Lester	-3878
▁Neander	-3879
▁Taliban	-3880
▁Stanford	-3881
▁Neanderthal	-3882
-1	-3883
▁—	-3884
oot	-3885
▁0.	-3886
▁55	-3887
▁Xô	-3888
▁lô	-3889
▁vớ	-3890
▁đè	-3891
ardo	-3892
aser	-3893
exas	-3894
thur	-3895
ulin	-3896
▁Bay	-3897
▁Pan	-3898
▁bồn	-3899
▁ent	-3900
▁nha	-3901
▁rốt	-3902
▁ser	-3903
▁vẩn	-3904
▁ôtô	-3905
▁ướt	-3906
right	-3907
▁Jenn	-3908
▁Shak	-3909
▁Sáng	-3910
▁Yeah	-3911
▁chay	-3912
▁ngợi	-3913
▁ngửi	-3914
▁pháo	-3915
▁quad	-3916
▁vắng	-3917
▁Texas	-3918
▁pound	-3919
▁Abraham	-3920
▁Charlie	-3921
▁Florida	-3922
▁nghiêng	-3923
ora	-3924
own	-3925
ượm	-3926
▁CP	-3927
▁Vi	-3928
▁ấp	-3929
agen	-3930
▁Bol	-3931
▁Bốn	-3932
▁Eli	-3933
▁Lar	-3934
▁Lại	-3935
▁Nel	-3936
▁Quả	-3937
▁Ray	-3938
▁Tur	-3939
▁bát	-3940
▁bưu	-3941
▁bẫy	-3942
▁chì	-3943
▁dưa	-3944
▁kìm	-3945
▁nâu	-3946
▁tao	-3947
▁xảo	-3948
▁Ước	-3949
▁1980	-3950
▁Bron	-3951
▁Jeff	-3952
▁bỏng	-3953
▁ngây	-3954
▁nuốt	-3955
▁thèm	-3956
▁thạo	-3957
▁Holly	-3958
▁Chương	-3959
▁Daniel	-3960
▁online	-3961
▁entropy	-3962
AR	-3963
fe	-3964
mo	-3965
ìu	-3966
ole	-3967
ory	-3968
pam	-3969
▁Da	-3970
▁xế	-3971
kins	-3972
▁Ari	-3973
▁USD	-3974
▁bẩy	-3975
▁bến	-3976
▁cay	-3977
▁ins	-3978
▁nạp	-3979
▁phế	-3980
▁rực	-3981
▁tảo	-3982
▁đắm	-3983
orden	-3984
▁Mạch	-3985
▁Vịnh	-3986
▁Wolf	-3987
▁Yout	-3988
▁chùm	-3989
▁dâng	-3990
▁quận	-3991
▁then	-3992
▁xoáy	-3993
▁Giáng	-3994
▁Trông	-3995
▁chiên	-3996
▁ngươi	-3997
▁virút	-3998
▁Đương	-3999
▁Philip	-4000
▁Olympic	-4001
ha	-4002
se	-4003
agh	-4004
ero	-4005
mon	-4006
rap	-4007
red	-4008
rog	-4009
yan	-4010
▁37	-4011
▁Ky	-4012
▁cộ	-4013
▁uỷ	-4014
▁Đế	-4015
▁700	-4016
▁Kev	-4017
▁Lau	-4018
▁Lớn	-4019
▁Lời	-4020
▁Mil	-4021
▁Mor	-4022
▁Tam	-4023
▁Tay	-4024
▁Tit	-4025
▁Tối	-4026
▁gay	-4027
▁lay	-4028
▁nhã	-4029
▁nín	-4030
▁soi	-4031
▁2050	-4032
▁Lịch	-4033
▁Nghĩ	-4034
▁Ngôn	-4035
▁Nhóm	-4036
▁Stew	-4037
▁Thôi	-4038
▁diều	-4039
▁luân	-4040
▁nhồi	-4041
▁nhộn	-4042
▁thuỳ	-4043
▁viêm	-4044
▁Đoạn	-4045
▁Brown	-4046
▁Cyrus	-4047
▁Quyền	-4048
▁South	-4049
▁Vương	-4050
▁khiếu	-4051
▁nhuộm	-4052
▁thiếp	-4053
▁dollar	-4054
▁Rosling	-4055
▁Youtube	-4056
-2	-4057
BM	-4058
ih	-4059
ata	-4060
enh	-4061
eop	-4062
ere	-4063
gar	-4064
ino	-4065
iêm	-4066
▁29	-4067
▁31	-4068
▁Cụ	-4069
▁DV	-4070
▁Si	-4071
▁xá	-4072
▁xô	-4073
▁xả	-4074
chia	-4075
ever	-4076
ison	-4077
▁191	-4078
▁Cap	-4079
▁For	-4080
▁Jac	-4081
▁Mos	-4082
▁Ron	-4083
▁Tìm	-4084
▁Wow	-4085
▁gộp	-4086
▁hân	-4087
▁lậu	-4088
▁lội	-4089
▁xen	-4090
▁Kiến	-4091
▁Long	-4092
▁Mill	-4093
▁Toán	-4094
▁bổng	-4095
▁sùng	-4096
▁thắp	-4097
▁trội	-4098
▁Đáng	-4099
▁Latin	-4100
▁khuất	-4101
▁khăng	-4102
▁trinh	-4103
▁Andrew	-4104
▁Norden	-4105
▁Watson	-4106
▁nghiền	-4107
TC	-4108
ke	-4109
den	-4110
oll	-4111
ona	-4112
rut	-4113
▁Av	-4114
▁Hu	-4115
▁Ro	-4116
▁bế	-4117
▁dỡ	-4118
▁lê	-4119
▁tw	-4120
▁ân	-4121
eton	-4122
reet	-4123
tron	-4124
▁800	-4125
▁Air	-4126
▁CEO	-4127
▁Cầu	-4128
▁Dis	-4129
▁Ear	-4130
▁Eur	-4131
▁Khả	-4132
▁Mur	-4133
▁Ted	-4134
▁cai	-4135
▁cuả	-4136
▁gập	-4137
▁keo	-4138
▁mar	-4139
▁mọt	-4140
▁ngô	-4141
▁ngộ	-4142
▁ray	-4143
▁ria	-4144
▁sói	-4145
▁sếp	-4146
▁Ánh	-4147
▁Đan	-4148
aland	-4149
ephen	-4150
eting	-4151
lobal	-4152
▁Chất	-4153
▁Gore	-4154
▁Hill	-4155
▁Kính	-4156
▁Mike	-4157
▁Tiền	-4158
▁chip	-4159
▁lượm	-4160
▁nhăn	-4161
▁trêu	-4162
etroit	-4163
▁Thống	-4164
▁khoán	-4165
▁Arthur	-4166
▁Singap	-4167
▁Detroit	-4168
▁Mandela	-4169
▁Stephen	-4170
▁insulin	-4171
▁Scotland	-4172
▁Palestine	-4173
EC	-4174
yd	-4175
gin	-4176
idi	-4177
mad	-4178
oop	-4179
▁As	-4180
▁CD	-4181
▁Ki	-4182
▁No	-4183
▁hả	-4184
▁ne	-4185
▁rổ	-4186
ence	-4187
espe	-4188
iana	-4189
▁Bal	-4190
▁Bọn	-4191
▁Mới	-4192
▁Som	-4193
▁Vic	-4194
▁bóp	-4195
▁bới	-4196
▁cẩu	-4197
▁giế	-4198
▁hán	-4199
▁hẻo	-4200
▁khe	-4201
▁nit	-4202
▁rải	-4203
▁vẫy	-4204
▁Đưa	-4205
ansas	-4206
burgh	-4207
▁Gold	-4208
▁Kiểu	-4209
▁Matt	-4210
▁dang	-4211
▁khâu	-4212
▁khép	-4213
▁khốn	-4214
▁mark	-4215
▁sảnh	-4216
onesia	-4217
▁Black	-4218
▁Bronx	-4219
▁Ngoại	-4220
▁laser	-4221
▁Street	-4222
▁trương	-4223
▁Shakespe	-4224
▁Hollywood	-4225
▁Indonesia	-4226
▁Singapore	-4227
BC	-4228
gh	-4229
eep	-4230
ies	-4231
nia	-4232
oto	-4233
via	-4234
▁Cố	-4235
▁Ec	-4236
▁Gh	-4237
▁Ir	-4238
▁Xã	-4239
▁Yo	-4240
▁tơ	-4241
evil	-4242
▁DVD	-4243
▁Fer	-4244
▁Lee	-4245
▁Lew	-4246
▁bùn	-4247
▁mil	-4248
▁nhí	-4249
▁nãy	-4250
▁sỏi	-4251
▁thề	-4252
▁tua	-4253
▁tụt	-4254
▁vàn	-4255
▁vặn	-4256
▁xài	-4257
▁Ever	-4258
▁Icel	-4259
▁chốn	-4260
▁khốc	-4261
▁lượn	-4262
▁ngơi	-4263
▁phôi	-4264
▁đàng	-4265
▁Laden	-4266
▁Nguồn	-4267
▁Robot	-4268
▁chặng	-4269
▁giếng	-4270
▁Joseph	-4271
▁Nelson	-4272
▁khoang	-4273
▁Iceland	-4274
BI	-4275
MA	-4276
NC	-4277
jo	-4278
bốt	-4279
dam	-4280
eck	-4281
olm	-4282
pha	-4283
que	-4284
▁46	-4285
▁Es	-4286
▁Kn	-4287
▁mi	-4288
▁rò	-4289
▁xi	-4290
▁xơ	-4291
▁Đô	-4292
atar	-4293
ilet	-4294
▁Bảy	-4295
▁Den	-4296
▁Mag	-4297
▁Pop	-4298
▁Pro	-4299
▁Riv	-4300
▁Thí	-4301
▁Thú	-4302
▁Tâm	-4303
▁bội	-4304
▁hàu	-4305
▁loa	-4306
▁lứa	-4307
▁mẹo	-4308
▁nắp	-4309
▁nếm	-4310
▁đãi	-4311
▁đồn	-4312
▁2002	-4313
▁Berk	-4314
▁Cảnh	-4315
▁Dưới	-4316
▁Nhạc	-4317
▁Sand	-4318
▁bênh	-4319
▁hăng	-4320
▁logo	-4321
▁lách	-4322
▁lửng	-4323
▁muôn	-4324
▁ngào	-4325
▁ngắt	-4326
▁nuối	-4327
▁quạt	-4328
▁rặng	-4329
▁vách	-4330
▁Định	-4331
▁đọng	-4332
▁Dường	-4333
▁khiết	-4334
▁liêng	-4335
▁nhược	-4336
▁tweet	-4337
▁Albert	-4338
▁Truyền	-4339
▁Victor	-4340
▁Montana	-4341
▁Zealand	-4342
▁Carolina	-4343
▁marketing	-4344
▁Shakespeare	-4345
ỉa	-4346
▁+	-4347
ear	-4348
mar	-4349
▁48	-4350
▁ED	-4351
▁Mô	-4352
▁nạ	-4353
aron	-4354
eron	-4355
ollo	-4356
oton	-4357
raph	-4358
▁Eth	-4359
▁Ham	-4360
▁Han	-4361
▁IBM	-4362
▁Jay	-4363
▁McC	-4364
▁Mấy	-4365
▁Mối	-4366
▁Mộc	-4367
▁Suy	-4368
▁Ter	-4369
▁bon	-4370
▁dâu	-4371
▁dời	-4372
▁kil	-4373
▁len	-4374
▁lấn	-4375
▁rệt	-4376
▁toa	-4377
▁tát	-4378
▁váy	-4379
▁Đàn	-4380
▁đan	-4381
▁đun	-4382
ville	-4383
▁Băng	-4384
▁chui	-4385
▁elec	-4386
▁hiếu	-4387
▁scan	-4388
▁suối	-4389
▁Kevin	-4390
▁Quảng	-4391
▁click	-4392
▁devil	-4393
▁ngoạn	-4394
▁quăng	-4395
▁Joshua	-4396
▁Newton	-4397
▁Virgin	-4398
▁chuộng	-4399
▁toilet	-4400
▁Silicon	-4401
si	-4402
ye	-4403
ụa	-4404
▁ơ	-4405
ani	-4406
har	-4407
nie	-4408
▁Bi	-4409
▁Gô	-4410
▁Kế	-4411
▁Sk	-4412
▁op	-4413
▁sp	-4414
▁êm	-4415
▁ôi	-4416
▁Đồ	-4417
▁ỏi	-4418
agos	-4419
oint	-4420
ylon	-4421
▁Chu	-4422
▁Chữ	-4423
▁Jul	-4424
▁Lou	-4425
▁Môi	-4426
▁Tem	-4427
▁Xây	-4428
▁cal	-4429
▁cua	-4430
▁cán	-4431
▁cắn	-4432
▁khử	-4433
▁nứt	-4434
▁quỵ	-4435
▁tạc	-4436
▁đứt	-4437
▁1900	-4438
▁1930	-4439
▁1999	-4440
▁Chân	-4441
▁Leon	-4442
▁Nick	-4443
▁Sher	-4444
▁nhát	-4445
▁nhạo	-4446
▁tước	-4447
▁Chile	-4448
▁Delhi	-4449
▁chuối	-4450
▁Gandhi	-4451
▁100,000	-4452
▁electron	-4453
bo	-4454
ni	-4455
ễn	-4456
▁ủ	-4457
din	-4458
oly	-4459
omp	-4460
ves	-4461
▁38	-4462
▁44	-4463
▁AR	-4464
▁BJ	-4465
▁Uỷ	-4466
▁We	-4467
▁hở	-4468
▁tớ	-4469
▁Bud	-4470
▁Gil	-4471
▁Lin	-4472
▁Mas	-4473
▁Mer	-4474
▁Ram	-4475
▁Red	-4476
▁Sai	-4477
▁bar	-4478
▁cọc	-4479
▁dồi	-4480
▁lót	-4481
▁ngả	-4482
▁sứa	-4483
▁tru	-4484
▁đạm	-4485
eland	-4486
▁2012	-4487
▁Buổi	-4488
▁Carl	-4489
▁Clin	-4490
▁Càng	-4491
▁High	-4492
▁Jane	-4493
▁Miss	-4494
▁Phía	-4495
▁Thần	-4496
▁cafe	-4497
▁chạp	-4498
▁kiềm	-4499
▁thốn	-4500
▁trói	-4501
▁Alpha	-4502
▁Atlan	-4503
▁Lewis	-4504
▁Sarah	-4505
▁Scott	-4506
▁Simon	-4507
▁khinh	-4508
▁Chuyến	-4509
▁Thương	-4510
▁Wright	-4511
▁Wolfram	-4512
▁Alexander	-4513
HA	-4514
cy	-4515
do	-4516
so	-4517
ux	-4518
ùn	-4519
ake	-4520
ato	-4521
hai	-4522
las	-4523
row	-4524
ươc	-4525
▁Ev	-4526
▁GG	-4527
▁Kr	-4528
▁Op	-4529
▁SO	-4530
▁WK	-4531
▁ha	-4532
▁ok	-4533
▁sờ	-4534
▁tẻ	-4535
aeda	-4536
ings	-4537
opia	-4538
▁Arg	-4539
▁bin	-4540
▁cạo	-4541
▁dào	-4542
▁hoi	-4543
▁lọt	-4544
▁nặc	-4545
▁nến	-4546
▁nộp	-4547
▁rớt	-4548
▁thỏ	-4549
▁tre	-4550
▁xốp	-4551
▁Đâu	-4552
▁đốn	-4553
▁Cuốn	-4554
▁Hiệu	-4555
▁Mạng	-4556
▁Năng	-4557
▁Rand	-4558
▁Tanz	-4559
▁Viết	-4560
▁Zimb	-4561
▁chật	-4562
▁chọi	-4563
▁cưỡi	-4564
▁giàn	-4565
▁găng	-4566
▁ngủi	-4567
▁nhấc	-4568
▁phàn	-4569
▁quẩn	-4570
▁rong	-4571
▁sưởi	-4572
▁đính	-4573
amburg	-4574
▁Thuật	-4575
▁nguội	-4576
▁phích	-4577
▁thừng	-4578
▁vướng	-4579
ational	-4580
▁Columb	-4581
▁Disney	-4582
▁Stewart	-4583
ij	-4584
km	-4585
ech	-4586
hov	-4587
nik	-4588
ode	-4589
ooh	-4590
ors	-4591
urt	-4592
ệch	-4593
▁Ag	-4594
▁Dr	-4595
▁JH	-4596
▁Ku	-4597
▁Mi	-4598
▁Ra	-4599
▁So	-4600
▁Vỗ	-4601
▁Xu	-4602
▁bì	-4603
▁cớ	-4604
▁vã	-4605
▁ôn	-4606
▁ắc	-4607
inda	-4608
ters	-4609
▁Bot	-4610
▁Căn	-4611
▁Cứu	-4612
▁Fri	-4613
▁Kel	-4614
▁Nỗi	-4615
▁Sus	-4616
▁Thị	-4617
▁Thủ	-4618
▁Trí	-4619
▁bọt	-4620
▁bời	-4621
▁cằn	-4622
▁enz	-4623
▁gắt	-4624
▁hao	-4625
▁tít	-4626
▁xấp	-4627
▁1984	-4628
▁2030	-4629
▁Jill	-4630
▁Jord	-4631
▁Mười	-4632
▁Tuổi	-4633
▁chốc	-4634
▁ngạo	-4635
▁phớt	-4636
▁tiệt	-4637
Global	-4638
entina	-4639
pamine	-4640
▁Phong	-4641
▁Thỉnh	-4642
▁khoác	-4643
▁thiêu	-4644
▁Johnny	-4645
▁Nathan	-4646
▁Brooklyn	-4647
BA	-4648
ún	-4649
▁ừ	-4650
bum	-4651
iff	-4652
ops	-4653
ost	-4654
rab	-4655
rey	-4656
uit	-4657
use	-4658
way	-4659
zab	-4660
▁Bh	-4661
▁Du	-4662
▁Ig	-4663
▁Kỹ	-4664
▁Vị	-4665
▁Xe	-4666
▁bỉ	-4667
▁go	-4668
▁mị	-4669
▁Ảo	-4670
ardy	-4671
etti	-4672
ican	-4673
ider	-4674
well	-4675
▁1.5	-4676
▁Aus	-4677
▁Báo	-4678
▁Cas	-4679
▁Của	-4680
▁Kal	-4681
▁Kat	-4682
▁Moz	-4683
▁Rog	-4684
▁Tah	-4685
▁Trò	-4686
▁Ush	-4687
▁cưa	-4688
▁gạo	-4689
▁gớm	-4690
▁háo	-4691
▁lụa	-4692
▁mìn	-4693
▁pop	-4694
▁rìu	-4695
▁trá	-4696
▁trệ	-4697
▁vùi	-4698
ering	-4699
ierra	-4700
▁Bell	-4701
▁Biết	-4702
▁Chúc	-4703
▁Dịch	-4704
▁Lang	-4705
▁Nghị	-4706
▁axit	-4707
▁dưng	-4708
▁dẳng	-4709
▁ghen	-4710
▁iPod	-4711
▁ngọc	-4712
▁nhục	-4713
▁thảy	-4714
▁tuộc	-4715
▁vành	-4716
▁vựng	-4717
▁điếu	-4718
zabeth	-4719
▁Hawai	-4720
▁Julia	-4721
▁Moore	-4722
▁Tranh	-4723
▁giáng	-4724
▁nhúng	-4725
▁phanh	-4726
▁tràng	-4727
enhagen	-4728
▁Bosnia	-4729
▁Venice	-4730
▁khuếch	-4731
▁poster	-4732
▁Tanzania	-4733
▁Virginia	-4734
▁Elizabeth	-4735
▁Parkinson	-4736
▁TEDGlobal	-4737
▁Copenhagen	-4738
MS	-4739
RA	-4740
fa	-4741
my	-4742
và	-4743
ũa	-4744
ẹt	-4745
ợm	-4746
▁Ă	-4747
ame	-4748
aze	-4749
eas	-4750
eat	-4751
ics	-4752
ily	-4753
ima	-4754
ive	-4755
off	-4756
ose	-4757
ott	-4758
rin	-4759
▁72	-4760
▁Ca	-4761
▁Ko	-4762
▁ah	-4763
▁gl	-4764
▁kg	-4765
▁nộ	-4766
▁tở	-4767
aine	-4768
alem	-4769
ucks	-4770
zler	-4771
▁193	-4772
▁2.5	-4773
▁Bir	-4774
▁Cây	-4775
▁Cục	-4776
▁EDI	-4777
▁Far	-4778
▁Hav	-4779
▁Hir	-4780
▁Mau	-4781
▁Sky	-4782
▁Sun	-4783
▁Syl	-4784
▁Tel	-4785
▁Tóm	-4786
▁Tập	-4787
▁củi	-4788
▁hip	-4789
▁hon	-4790
▁lụt	-4791
▁met	-4792
▁mác	-4793
▁méo	-4794
▁nới	-4795
▁ven	-4796
▁vit	-4797
▁vắt	-4798
▁đặn	-4799
▁Bert	-4800
▁Brit	-4801
▁Ethi	-4802
▁Maya	-4803
▁Phục	-4804
▁buồm	-4805
▁cành	-4806
▁kiều	-4807
▁láng	-4808
▁nhại	-4809
▁nhọn	-4810
▁nhức	-4811
▁tụng	-4812
usalem	-4813
▁Georg	-4814
▁Power	-4815
▁Trang	-4816
▁album	-4817
▁chinh	-4818
▁chích	-4819
▁opera	-4820
▁Colomb	-4821
▁Edward	-4822
▁choàng	-4823
▁Clinton	-4824
▁Teszler	-4825
▁vitamin	-4826
▁dopamine	-4827
▁Argentina	-4828
▁Jerusalem	-4829
IA	-4830
rr	-4831
sy	-4832
õm	-4833
PTC	-4834
edy	-4835
isa	-4836
iti	-4837
oln	-4838
ula	-4839
ỳnh	-4840
▁42	-4841
▁96	-4842
▁Bỏ	-4843
▁Im	-4844
▁Vụ	-4845
▁bự	-4846
eley	-4847
erom	-4848
igan	-4849
▁130	-4850
▁192	-4851
▁Ash	-4852
▁Bas	-4853
▁Hel	-4854
▁Min	-4855
▁Mov	-4856
▁Nội	-4857
▁Tạp	-4858
▁cào	-4859
▁kép	-4860
▁man	-4861
▁nấc	-4862
▁nực	-4863
▁phả	-4864
▁toạ	-4865
▁vỉa	-4866
ellow	-4867
▁Amer	-4868
▁Arch	-4869
▁Benj	-4870
▁Carn	-4871
▁Chết	-4872
▁Diễn	-4873
▁Doug	-4874
▁Hung	-4875
▁Linc	-4876
▁Line	-4877
▁Luân	-4878
▁Marc	-4879
▁Nhất	-4880
▁Phân	-4881
▁Port	-4882
▁Quần	-4883
▁Tuần	-4884
▁Từng	-4885
▁diễu	-4886
▁khoe	-4887
▁liêu	-4888
▁lười	-4889
▁mông	-4890
▁nhốt	-4891
▁quầy	-4892
▁thối	-4893
▁viol	-4894
▁đươc	-4895
hammad	-4896
▁Jones	-4897
▁Matth	-4898
▁sương	-4899
▁Sierra	-4900
▁Sylvia	-4901
▁Babylon	-4902
▁Lincoln	-4903
▁silicon	-4904
▁Columbia	-4905
▁Ethiopia	-4906
▁Muhammad	-4907
CA	-4908
tt	-4909
ụn	-4910
▁ả	-4911
ECD	-4912
acy	-4913
asc	-4914
ila	-4915
itt	-4916
kyo	-4917
men	-4918
▁86	-4919
▁Ha	-4920
▁UC	-4921
▁ao	-4922
▁tạ	-4923
▁xẻ	-4924
▁ớt	-4925
ifer	-4926
phia	-4927
utan	-4928
wich	-4929
▁2.0	-4930
▁350	-4931
▁Dựa	-4932
▁God	-4933
▁Jes	-4934
▁Law	-4935
▁Nic	-4936
▁Roy	-4937
▁Sib	-4938
▁Thư	-4939
▁Tấm	-4940
▁Tới	-4941
▁Val	-4942
▁Yêu	-4943
▁báu	-4944
▁chà	-4945
▁chổ	-4946
▁cúi	-4947
▁dạn	-4948
▁gán	-4949
▁gót	-4950
▁gầy	-4951
▁gốm	-4952
▁gục	-4953
▁lén	-4954
▁mài	-4955
▁mỉa	-4956
▁nóc	-4957
▁rùa	-4958
▁Đào	-4959
▁Đặt	-4960
▁đầm	-4961
PTCHA	-4962
ather	-4963
▁Bern	-4964
▁Fort	-4965
▁Giao	-4966
▁Lòng	-4967
▁Minh	-4968
▁Nhận	-4969
▁Niềm	-4970
▁OECD	-4971
▁Thấy	-4972
▁Tinh	-4973
▁Walk	-4974
▁West	-4975
▁acid	-4976
▁iPad	-4977
▁kiếp	-4978
▁lung	-4979
▁lúng	-4980
▁nháy	-4981
▁rảnh	-4982
▁suýt	-4983
▁taxi	-4984
▁xuôi	-4985
▁đắng	-4986
▁Broad	-4987
▁Leone	-4988
▁Lượng	-4989
▁Nhiệm	-4990
▁North	-4991
▁Qatar	-4992
▁Trắng	-4993
▁chênh	-4994
▁huỳnh	-4995
▁phiện	-4996
▁Apollo	-4997
▁Hawaii	-4998
▁Julian	-4999
▁Philad	-5000
▁Zimbab	-5001
▁pherom	-5002
▁Cameron	-5003
▁Somalia	-5004
▁Anderson	-5005
▁Jonathan	-5006
▁Leonardo	-5007
▁Victoria	-5008
▁Greenland	-5009
,1	-5010
,7	-5011
LA	-5012
fi	-5013
kh	-5014
mi	-5015
pi	-5016
ui	-5017
▁z	-5018
bur	-5019
ena	-5020
ita	-5021
lah	-5022
opa	-5023
rib	-5024
uba	-5025
ule	-5026
ulu	-5027
vít	-5028
ươm	-5029
▁64	-5030
▁98	-5031
▁AO	-5032
▁Bí	-5033
▁Bồ	-5034
▁Ex	-5035
▁Hi	-5036
▁It	-5037
▁Tỉ	-5038
▁Uh	-5039
▁bệ	-5040
▁sộ	-5041
▁xì	-5042
▁xổ	-5043
ield	-5044
lash	-5045
uper	-5046
▁1,5	-5047
▁140	-5048
▁160	-5049
▁185	-5050
▁187	-5051
▁Ann	-5052
▁Dub	-5053
▁Hẳn	-5054
▁Kam	-5055
▁Ker	-5056
▁McD	-5057
▁Mức	-5058
▁Net	-5059
▁Rad	-5060
▁Sol	-5061
▁bén	-5062
▁côi	-5063
▁căm	-5064
▁cửu	-5065
▁eur	-5066
▁hen	-5067
▁hức	-5068
▁lãi	-5069
▁mỉm	-5070
▁oxi	-5071
▁sấu	-5072
▁thỉ	-5073
▁tỉa	-5074
▁tởm	-5075
▁xào	-5076
▁ươi	-5077
ahidi	-5078
ennis	-5079
otter	-5080
phone	-5081
utnik	-5082
▁Bali	-5083
▁Biểu	-5084
▁City	-5085
▁Edin	-5086
▁Emma	-5087
▁Hiển	-5088
▁Khan	-5089
▁Khối	-5090
▁News	-5091
▁Siêu	-5092
▁Temp	-5093
▁Well	-5094
▁Xanh	-5095
▁chéo	-5096
▁chảo	-5097
▁giầy	-5098
▁ngâm	-5099
▁quấn	-5100
▁rock	-5101
▁thản	-5102
▁điểu	-5103
▁đười	-5104
azeera	-5105
ladesh	-5106
▁Alice	-5107
▁Earth	-5108
▁Kelly	-5109
▁Starb	-5110
▁Tokyo	-5111
▁ngoặt	-5112
▁virut	-5113
▁Siberia	-5114
▁Sputnik	-5115
▁Berkeley	-5116
▁National	-5117
▁Ushahidi	-5118
▁Zimbabwe	-5119
▁Edinburgh	-5120
▁Tasmanian	-5121
OX	-5122
ơc	-5123
▁=	-5124
200	-5125
ade	-5126
aig	-5127
ken	-5128
obi	-5129
une	-5130
▁BR	-5131
▁CN	-5132
▁Mở	-5133
▁tý	-5134
▁Áo	-5135
▁Ăn	-5136
▁đự	-5137
aska	-5138
egie	-5139
nedy	-5140
tông	-5141
uron	-5142
▁180	-5143
▁Bel	-5144
▁Boy	-5145
▁Ele	-5146
▁Eve	-5147
▁FOX	-5148
▁Had	-5149
▁Khó	-5150
▁Mắt	-5151
▁Pol	-5152
▁Sud	-5153
▁bịt	-5154
▁cày	-5155
▁gas	-5156
▁hor	-5157
▁ion	-5158
▁mầu	-5159
▁mộc	-5160
▁ngự	-5161
▁rậm	-5162
▁sáp	-5163
▁tòi	-5164
▁vầy	-5165
▁xoa	-5166
▁xáo	-5167
▁xót	-5168
▁xịt	-5169
▁ăng	-5170
▁Đài	-5171
▁Đời	-5172
▁đỗi	-5173
graph	-5174
rence	-5175
▁1996	-5176
▁5000	-5177
▁Anas	-5178
▁Camp	-5179
▁Giám	-5180
▁Gran	-5181
▁Jeop	-5182
▁Khác	-5183
▁Nike	-5184
▁Penn	-5185
▁Shir	-5186
▁Sống	-5187
▁Thầy	-5188
▁Whit	-5189
▁bướu	-5190
▁chóp	-5191
▁cúng	-5192
▁cưng	-5193
▁giục	-5194
▁mánh	-5195
▁nguỵ	-5196
▁nham	-5197
▁poly	-5198
▁quấy	-5199
▁rãnh	-5200
▁rồng	-5201
▁điếc	-5202
elphia	-5203
▁Movem	-5204
▁Tesla	-5205
▁Triều	-5206
thalate	-5207
▁Copern	-5208
▁Luther	-5209
▁Steven	-5210
amburger	-5211
▁100.000	-5212
▁Atlanta	-5213
▁Jazeera	-5214
▁Kennedy	-5215
▁Benjamin	-5216
▁Carnegie	-5217
▁Colombia	-5218
▁Michigan	-5219
▁Christoph	-5220
▁Starbucks	-5221
▁Bangladesh	-5222
▁Philadelphia	-5223
-3	-5224
40	-5225
DA	-5226
EA	-5227
Sp	-5228
hh	-5229
oa	-5230
zơ	-5231
ễu	-5232
ait	-5233
aly	-5234
ava	-5235
bie	-5236
ble	-5237
key	-5238
lem	-5239
med	-5240
oir	-5241
ome	-5242
rah	-5243
reg	-5244
the	-5245
ura	-5246
wen	-5247
▁3.	-5248
▁41	-5249
▁43	-5250
▁58	-5251
▁93	-5252
▁AK	-5253
▁AM	-5254
▁DJ	-5255
▁Dữ	-5256
▁Ke	-5257
▁cm	-5258
▁dì	-5259
▁na	-5260
▁rà	-5261
ello	-5262
ihad	-5263
mart	-5264
olas	-5265
omen	-5266
rick	-5267
▁2,5	-5268
▁Ach	-5269
▁Chi	-5270
▁Eng	-5271
▁Gar	-5272
▁Gửi	-5273
▁Hal	-5274
▁Map	-5275
▁Mất	-5276
▁Phố	-5277
▁Quí	-5278
▁Ung	-5279
▁bit	-5280
▁bôi	-5281
▁bầm	-5282
▁hốc	-5283
▁lầy	-5284
▁ooh	-5285
▁trớ	-5286
▁tụi	-5287
▁vác	-5288
▁vôi	-5289
▁xâu	-5290
▁xắn	-5291
▁Đôn	-5292
phere	-5293
▁1998	-5294
▁Biển	-5295
▁Bánh	-5296
▁Cher	-5297
▁Chia	-5298
▁Danh	-5299
▁Giữa	-5300
▁Hawk	-5301
▁Ivan	-5302
▁Joel	-5303
▁Mong	-5304
▁Nair	-5305
▁Phản	-5306
▁Rach	-5307
▁Rick	-5308
▁Suốt	-5309
▁Sách	-5310
▁Tạng	-5311
▁Yves	-5312
▁chén	-5313
▁chói	-5314
▁chải	-5315
▁chồn	-5316
▁ghim	-5317
▁giun	-5318
▁nhôm	-5319
▁sand	-5320
▁test	-5321
▁trỗi	-5322
▁viền	-5323
▁yeah	-5324
apagos	-5325
opatch	-5326
▁1.000	-5327
▁2,000	-5328
▁Emily	-5329
▁Marco	-5330
▁Mitch	-5331
▁Ngành	-5332
▁Roger	-5333
▁Super	-5334
▁Susan	-5335
▁chiết	-5336
▁duyên	-5337
▁khống	-5338
▁triễn	-5339
graphic	-5340
▁50.000	-5341
▁Lakota	-5342
▁Warren	-5343
▁Everest	-5344
▁Hungary	-5345
▁Jackson	-5346
▁Movember	-5347
▁Tasmania	-5348
▁Galapagos	-5349
▁Nanopatch	-5350
▁hamburger	-5351
..	-5352
12	-5353
Ch	-5354
nd	-5355
nô	-5356
pu	-5357
sc	-5358
zz	-5359
eng	-5360
ial	-5361
inn	-5362
iva	-5363
ocr	-5364
tim	-5365
unk	-5366
ềng	-5367
▁52	-5368
▁74	-5369
▁ES	-5370
▁IM	-5371
▁Kẻ	-5372
▁Nô	-5373
▁Sở	-5374
▁Tử	-5375
▁Ur	-5376
▁et	-5377
▁ox	-5378
▁ve	-5379
▁vá	-5380
▁ập	-5381
airo	-5382
eman	-5383
epal	-5384
zona	-5385
▁190	-5386
▁Chờ	-5387
▁Cor	-5388
▁Dàn	-5389
▁FGM	-5390
▁Giê	-5391
▁Hạt	-5392
▁Khí	-5393
▁Leb	-5394
▁Lạt	-5395
▁Oak	-5396
▁Oli	-5397
▁Pep	-5398
▁Pri	-5399
▁Res	-5400
▁Sad	-5401
▁She	-5402
▁Trị	-5403
▁Trừ	-5404
▁Xét	-5405
▁dấn	-5406
▁gel	-5407
▁ghề	-5408
▁gật	-5409
▁hel	-5410
▁lẫy	-5411
▁sập	-5412
▁tột	-5413
▁Đám	-5414
▁Đêm	-5415
▁đắc	-5416
attle	-5417
ivers	-5418
onald	-5419
umbai	-5420
▁1994	-5421
▁1995	-5422
▁Beat	-5423
▁Beet	-5424
▁Dùng	-5425
▁Jess	-5426
▁bàng	-5427
▁bành	-5428
▁báng	-5429
▁ngặt	-5430
▁việt	-5431
▁vũng	-5432
▁Aaron	-5433
▁Chứng	-5434
▁Louis	-5435
▁Nepal	-5436
▁Princ	-5437
▁Sudan	-5438
▁chằng	-5439
▁giềng	-5440
▁khuấy	-5441
▁ngước	-5442
▁phông	-5443
▁quáng	-5444
▁thủng	-5445
▁Bhutan	-5446
▁Kansas	-5447
▁Mumbai	-5448
▁Samuel	-5449
▁nguyệt	-5450
▁nhượng	-5451
osterone	-5452
▁Arizona	-5453
▁CAPTCHA	-5454
▁Johnson	-5455
▁Tempest	-5456
▁Jeopardy	-5457
▁Princeton	-5458
▁Christopher	-5459
80	-5460
SC	-5461
rô	-5462
ym	-5463
ựu	-5464
▁)	-5465
▁á	-5466
ado	-5467
chi	-5468
emy	-5469
ias	-5470
môn	-5471
một	-5472
ons	-5473
ows	-5474
ray	-5475
str	-5476
tic	-5477
ump	-5478
vis	-5479
▁47	-5480
▁97	-5481
▁CS	-5482
▁Dễ	-5483
▁IP	-5484
▁PH	-5485
▁RW	-5486
▁Sa	-5487
▁Sn	-5488
▁bã	-5489
▁kỵ	-5490
▁me	-5491
▁no	-5492
▁đu	-5493
ater	-5494
atur	-5495
cent	-5496
cher	-5497
ette	-5498
imet	-5499
onto	-5500
osau	-5501
ston	-5502
▁900	-5503
▁Aur	-5504
▁Die	-5505
▁Fox	-5506
▁Gro	-5507
▁Hol	-5508
▁Kur	-5509
▁Lai	-5510
▁Lực	-5511
▁Mus	-5512
▁Rod	-5513
▁Seb	-5514
▁Sen	-5515
▁Str	-5516
▁Tai	-5517
▁Tám	-5518
▁Tầm	-5519
▁Tức	-5520
▁Vik	-5521
▁còi	-5522
▁cẩm	-5523
▁fan	-5524
▁lít	-5525
▁mao	-5526
▁mặn	-5527
▁náo	-5528
▁nồi	-5529
▁prô	-5530
▁rap	-5531
▁reo	-5532
▁sẹo	-5533
▁trù	-5534
▁tản	-5535
▁tặc	-5536
▁đậy	-5537
▁đắp	-5538
▁Ảnh	-5539
eller	-5540
hoven	-5541
▁Alan	-5542
▁Chad	-5543
▁Clay	-5544
▁Giấc	-5545
▁Luôn	-5546
▁Mass	-5547
▁Romo	-5548
▁Time	-5549
▁Tiêu	-5550
▁amin	-5551
▁bịch	-5552
▁gram	-5553
▁hiên	-5554
▁nhai	-5555
▁nhọc	-5556
▁suôn	-5557
▁thẹn	-5558
▁thỉu	-5559
▁trơn	-5560
▁tưới	-5561
▁vuốt	-5562
ribati	-5563
▁Cairo	-5564
▁Grand	-5565
▁Inter	-5566
▁Jesus	-5567
▁Jonas	-5568
▁Larry	-5569
▁Ngươi	-5570
▁Skype	-5571
▁Thách	-5572
▁phình	-5573
▁viếng	-5574
▁20.000	-5575
▁Alaska	-5576
▁Berlin	-5577
▁Havard	-5578
▁Rachel	-5579
▁Taylor	-5580
▁violin	-5581
▁Jennifer	-5582
▁Kiribati	-5583
▁Beethoven	-5584
▁testosterone	-5585
99	-5586
NG	-5587
gi	-5588
ii	-5589
kr	-5590
yo	-5591
▁q	-5592
▁Ờ	-5593
aus	-5594
ban	-5595
cou	-5596
ean	-5597
ene	-5598
iro	-5599
oli	-5600
ool	-5601
orm	-5602
oud	-5603
ưởi	-5604
▁34	-5605
▁77	-5606
▁Bé	-5607
▁Cổ	-5608
▁Gl	-5609
▁IQ	-5610
▁Li	-5611
▁SA	-5612
▁SR	-5613
▁UN	-5614
▁XL	-5615
▁gồ	-5616
▁it	-5617
▁kị	-5618
▁lố	-5619
▁má	-5620
▁vv	-5621
▁xở	-5622
▁ín	-5623
▁ầm	-5624
alay	-5625
alin	-5626
eyer	-5627
icus	-5628
ines	-5629
omet	-5630
stan	-5631
tech	-5632
word	-5633
▁125	-5634
▁450	-5635
▁Art	-5636
▁Bil	-5637
▁Bàn	-5638
▁CNN	-5639
▁Cru	-5640
▁Cur	-5641
▁Gan	-5642
▁Lên	-5643
▁Lập	-5644
▁McK	-5645
▁Mul	-5646
▁Nấm	-5647
▁Scr	-5648
▁Sản	-5649
▁Vol	-5650
▁Vua	-5651
▁Vận	-5652
▁câm	-5653
▁cỗi	-5654
▁dấy	-5655
▁gôn	-5656
▁gầm	-5657
▁hèn	-5658
▁hươ	-5659
▁hắc	-5660
▁lẽo	-5661
▁nai	-5662
▁nhẽ	-5663
▁sạc	-5664
▁sụt	-5665
▁trỏ	-5666
ersey	-5667
garet	-5668
ister	-5669
ustin	-5670
▁1975	-5671
▁Cuba	-5672
▁Dick	-5673
▁Dòng	-5674
▁Free	-5675
▁Hoạt	-5676
▁Hồng	-5677
▁Jean	-5678
▁Mama	-5679
▁Ryan	-5680
▁Stef	-5681
▁Will	-5682
▁bazơ	-5683
▁chổi	-5684
▁họng	-5685
▁kiêu	-5686
▁liễu	-5687
▁lộng	-5688
▁nang	-5689
▁ngần	-5690
▁ngợp	-5691
▁phao	-5692
▁rách	-5693
▁ròng	-5694
▁đựơc	-5695
▁Grace	-5696
▁Great	-5697
▁Plato	-5698
▁Thung	-5699
▁Titus	-5700
▁banjo	-5701
▁chanh	-5702
▁giang	-5703
▁quẳng	-5704
▁thình	-5705
▁50,000	-5706
▁Cheryl	-5707
▁Europa	-5708
▁Jersey	-5709
▁Jordan	-5710
▁Trưởng	-5711
▁Yorker	-5712
▁Seattle	-5713
▁Lawrence	-5714
▁Margaret	-5715
▁McDonald	-5716
▁sandwich	-5717
▁Jefferson	-5718
▁Lesterland	-5719
br	-5720
ko	-5721
▁Ứ	-5722
RNA	-5723
Tôi	-5724
act	-5725
aza	-5726
cha	-5727
ead	-5728
ezu	-5729
fur	-5730
iêt	-5731
opy	-5732
ori	-5733
tan	-5734
tel	-5735
▁82	-5736
▁AV	-5737
▁BM	-5738
▁Bo	-5739
▁Bị	-5740
▁CC	-5741
▁Hạ	-5742
▁Kỷ	-5743
▁LH	-5744
▁Sl	-5745
▁TH	-5746
▁TS	-5747
▁bo	-5748
▁bú	-5749
▁dè	-5750
▁en	-5751
▁gu	-5752
▁ki	-5753
▁mĩ	-5754
▁tứ	-5755
able	-5756
illa	-5757
imee	-5758
inea	-5759
rina	-5760
uyển	-5761
▁All	-5762
▁Cao	-5763
▁DAR	-5764
▁Dam	-5765
▁FBI	-5766
▁Fib	-5767
▁Ful	-5768
▁Has	-5769
▁Hát	-5770
▁Jar	-5771
▁Kib	-5772
▁Lạy	-5773
▁Mai	-5774
▁McG	-5775
▁Nhớ	-5776
▁Sắp	-5777
▁Tho	-5778
▁Tob	-5779
▁Tun	-5780
▁Tạm	-5781
▁Ver	-5782
▁bus	-5783
▁bịp	-5784
▁gặm	-5785
▁khờ	-5786
▁kèn	-5787
▁loé	-5788
▁lạy	-5789
▁nhô	-5790
▁phu	-5791
▁rạc	-5792
▁rẩy	-5793
▁rọi	-5794
▁thà	-5795
▁xói	-5796
▁Đội	-5797
▁Đợi	-5798
▁đút	-5799
▁Ứng	-5800
Women	-5801
allon	-5802
athon	-5803
regon	-5804
▁1997	-5805
▁4000	-5806
▁Arab	-5807
▁Beau	-5808
▁Biến	-5809
▁Blue	-5810
▁Conn	-5811
▁Cười	-5812
▁Dean	-5813
▁Doha	-5814
▁FOXO	-5815
▁Gary	-5816
▁Hann	-5817
▁Juli	-5818
▁Mary	-5819
▁Peru	-5820
▁Quản	-5821
▁Rome	-5822
▁Ross	-5823
▁Russ	-5824
▁Tham	-5825
▁Vinc	-5826
▁Vòng	-5827
▁Vùng	-5828
▁giễu	-5829
▁hươu	-5830
▁link	-5831
▁miên	-5832
▁nhấm	-5833
▁nòng	-5834
▁nấng	-5835
▁pass	-5836
▁phẫn	-5837
▁rạng	-5838
▁sừng	-5839
▁thuở	-5840
▁thêu	-5841
▁thạc	-5842
▁trút	-5843
couver	-5844
otonin	-5845
timore	-5846
▁Aimee	-5847
▁Beach	-5848
▁Craig	-5849
▁Denis	-5850
▁Diana	-5851
▁Diego	-5852
▁Fried	-5853
▁Jerry	-5854
▁Keith	-5855
▁Khủng	-5856
▁Kyoto	-5857
▁Thanh	-5858
▁Thuốc	-5859
▁buông	-5860
▁games	-5861
▁khuya	-5862
▁mường	-5863
▁spagh	-5864
▁Bertie	-5865
▁Graham	-5866
▁Guinea	-5867
▁Island	-5868
▁Murray	-5869
▁Oliver	-5870
▁Oregon	-5871
▁Phượng	-5872
▁Thuyết	-5873
▁Hawking	-5874
▁Katrina	-5875
▁Nairobi	-5876
▁Toronto	-5877
▁Mitchell	-5878
▁marathon	-5879
▁password	-5880
▁phthalate	-5881
▁spaghetti	-5882
▁Geographic	-5883
CC	-5884
da	-5885
ều	-5886
▁Ẩ	-5887
app	-5888
atz	-5889
ays	-5890
bốn	-5891
ese	-5892
eta	-5893
ont	-5894
rie	-5895
tha	-5896
ugh	-5897
▁0,	-5898
▁2,	-5899
▁54	-5900
▁Bờ	-5901
▁CL	-5902
▁DP	-5903
▁Fr	-5904
▁MG	-5905
▁Mã	-5906
▁Mê	-5907
▁On	-5908
▁RG	-5909
▁sỡ	-5910
▁wh	-5911
▁đê	-5912
abad	-5913
acci	-5914
agan	-5915
ager	-5916
anic	-5917
anon	-5918
fred	-5919
iger	-5920
ites	-5921
rane	-5922
▁1,2	-5923
▁1.2	-5924
▁Bah	-5925
▁Blo	-5926
▁Cơn	-5927
▁Dor	-5928
▁Dây	-5929
▁Dấu	-5930
▁Dầu	-5931
▁FDA	-5932
▁Gay	-5933
▁Geh	-5934
▁Ger	-5935
▁Him	-5936
▁Hop	-5937
▁Jas	-5938
▁Jud	-5939
▁Lâm	-5940
▁Met	-5941
▁Mot	-5942
▁Mày	-5943
▁Nửa	-5944
▁Oxy	-5945
▁SMS	-5946
▁Sil	-5947
▁Tôn	-5948
▁Ukr	-5949
▁bần	-5950
▁cáu	-5951
▁cõi	-5952
▁cơm	-5953
▁dẫu	-5954
▁gởi	-5955
▁lon	-5956
▁mịn	-5957
▁nhổ	-5958
▁nôi	-5959
▁nôn	-5960
▁nặn	-5961
▁sải	-5962
▁sảy	-5963
▁sấm	-5964
▁tem	-5965
▁top	-5966
▁tro	-5967
▁viê	-5968
▁vóc	-5969
▁xít	-5970
▁đẫm	-5971
▁ướp	-5972
alore	-5973
athem	-5974
eeney	-5975
etown	-5976
owitz	-5977
▁1945	-5978
▁1992	-5979
▁2020	-5980
▁6000	-5981
▁Bolt	-5982
▁Bóng	-5983
▁Chạy	-5984
▁Dave	-5985
▁Gord	-5986
▁Gwen	-5987
▁Hall	-5988
▁Kích	-5989
▁Luận	-5990
▁Miễn	-5991
▁Nich	-5992
▁Nông	-5993
▁Pier	-5994
▁Rose	-5995
▁Schw	-5996
▁Stir	-5997
▁Tiên	-5998
▁calo	-5999
▁file	-6000
▁hoạn	-6001
▁hãnh	-6002
▁kiêm	-6003
▁miệt	-6004
▁prog	-6005
▁rành	-6006
▁rạch	-6007
▁rụng	-6008
▁teen	-6009
▁thoa	-6010
▁trâu	-6011
▁trọt	-6012
▁xuẩn	-6013
▁Đứng	-6014
▁điềm	-6015
▁đấng	-6016
easure	-6017
ezuela	-6018
onacci	-6019
▁1,000	-6020
▁Brend	-6021
▁Chống	-6022
▁Dubai	-6023
▁Julie	-6024
▁Mario	-6025
▁Nhiên	-6026
▁Qaeda	-6027
▁State	-6028
▁Stock	-6029
▁Trăng	-6030
▁Tunis	-6031
▁canxi	-6032
▁chệch	-6033
▁metan	-6034
▁shock	-6035
▁Walker	-6036
▁neuron	-6037
▁nguyền	-6038
▁Himalay	-6039
▁Lebanon	-6040
▁Matthew	-6041
▁Oakland	-6042
▁Franklin	-6043
▁Treasure	-6044
▁microRNA	-6045
▁Baltimore	-6046
▁Bangalore	-6047
▁Fibonacci	-6048
▁Vancouver	-6049
▁Venezuela	-6050
▁serotonin	-6051
▁Copernicus	-6052
oz	-6053
pr	-6054
sw	-6055
▁#	-6056
aks	-6057
ave	-6058
erb	-6059
ibo	-6060
ife	-6061
obs	-6062
ral	-6063
ree	-6064
uce	-6065
usd	-6066
▁53	-6067
▁57	-6068
▁68	-6069
▁78	-6070
▁Il	-6071
▁Ti	-6072
▁Ty	-6073
▁Tệ	-6074
▁Tỷ	-6075
▁gò	-6076
▁tú	-6077
▁tể	-6078
▁Ẩn	-6079
▁Ừm	-6080
ange	-6081
ecca	-6082
echn	-6083
eech	-6084
ideo	-6085
itra	-6086
lins	-6087
mann	-6088
nett	-6089
obyl	-6090
ould	-6091
over	-6092
ream	-6093
▁1.3	-6094
▁110	-6095
▁404	-6096
▁Abu	-6097
▁Ali	-6098
▁Bán	-6099
▁CAD	-6100
▁Chế	-6101
▁Dol	-6102
▁Ess	-6103
▁Kle	-6104
▁Len	-6105
▁Leo	-6106
▁Lev	-6107
▁Mời	-6108
▁Pap	-6109
▁Sob	-6110
▁Teh	-6111
▁Xếp	-6112
▁bạt	-6113
▁bục	-6114
▁cat	-6115
▁dẫm	-6116
▁gào	-6117
▁gáy	-6118
▁hun	-6119
▁loà	-6120
▁lẩn	-6121
▁mút	-6122
▁mội	-6123
▁quỳ	-6124
▁sun	-6125
▁sút	-6126
▁you	-6127
▁Đạt	-6128
berry	-6129
field	-6130
ition	-6131
lider	-6132
oshop	-6133
▁Anth	-6134
▁Buồn	-6135
▁Cent	-6136
▁Gaza	-6137
▁Greg	-6138
▁Khái	-6139
▁Kiểm	-6140
▁Like	-6141
▁Lock	-6142
▁Palm	-6143
▁Pink	-6144
▁Rory	-6145
▁SOPA	-6146
▁Tenn	-6147
▁Thập	-6148
▁Thức	-6149
▁Tiểu	-6150
▁Yale	-6151
▁axít	-6152
▁chắt	-6153
▁duỗi	-6154
▁giòn	-6155
▁gluc	-6156
▁horm	-6157
▁nhún	-6158
▁phai	-6159
▁quật	-6160
▁rưởi	-6161
▁thoi	-6162
▁xông	-6163
enberg	-6164
▁Billy	-6165
▁Chern	-6166
▁Gando	-6167
▁Jamai	-6168
▁Khách	-6169
▁Pepsi	-6170
▁Saudi	-6171
▁ngách	-6172
osaurus	-6173
otoshop	-6174
▁Alfred	-6175
▁Fellow	-6176
▁Harlem	-6177
▁Mozart	-6178
▁Panthe	-6179
▁Potter	-6180
▁Sobule	-6181
▁Tehran	-6182
▁gallon	-6183
▁nghênh	-6184
▁nitric	-6185
▁Liberia	-6186
▁Melinda	-6187
▁Phillip	-6188
▁Sweeney	-6189
▁American	-6190
▁Stirling	-6191
▁Chernobyl	-6192
.&	-6193
SE	-6194
ct	-6195
hr	-6196
ww	-6197
ợc	-6198
⁄4	-6199
aga	-6200
aha	-6201
ars	-6202
awa	-6203
awi	-6204
bor	-6205
cia	-6206
esa	-6207
esk	-6208
ipp	-6209
ira	-6210
let	-6211
oko	-6212
oux	-6213
rir	-6214
rof	-6215
▁00	-6216
▁39	-6217
▁84	-6218
▁Az	-6219
▁Ix	-6220
▁PI	-6221
▁Rh	-6222
▁Ru	-6223
▁át	-6224
▁ảm	-6225
atem	-6226
idge	-6227
mail	-6228
oman	-6229
urch	-6230
▁186	-6231
▁189	-6232
▁360	-6233
▁Ail	-6234
▁Alb	-6235
▁Clo	-6236
▁Dai	-6237
▁Deb	-6238
▁Dow	-6239
▁Dur	-6240
▁Haz	-6241
▁Hun	-6242
▁Kay	-6243
▁Lim	-6244
▁Lợi	-6245
▁Mak	-6246
▁Med	-6247
▁Màn	-6248
▁Nov	-6249
▁Ooh	-6250
▁Ott	-6251
▁Reb	-6252
▁Sug	-6253
▁Thể	-6254
▁Vui	-6255
▁bíp	-6256
▁dốt	-6257
▁gra	-6258
▁gân	-6259
▁hời	-6260
▁kén	-6261
▁lẫm	-6262
▁mau	-6263
▁nhì	-6264
▁nọc	-6265
▁rán	-6266
▁son	-6267
▁ter	-6268
▁vãn	-6269
▁xén	-6270
▁đũa	-6271
ambia	-6272
extin	-6273
insky	-6274
olate	-6275
shire	-6276
▁1989	-6277
▁Chọn	-6278
▁Chức	-6279
▁East	-6280
▁Evan	-6281
▁Hiến	-6282
▁Hong	-6283
▁Irag	-6284
▁MoMA	-6285
▁Neil	-6286
▁Nguy	-6287
▁Nico	-6288
▁Sang	-6289
▁Sara	-6290
▁Shar	-6291
▁Soph	-6292
▁Tháp	-6293
▁Tora	-6294
▁Wiki	-6295
▁Wood	-6296
▁chen	-6297
▁foot	-6298
▁lanh	-6299
▁luẩn	-6300
▁ngửa	-6301
▁nhảm	-6302
▁sưng	-6303
▁thục	-6304
▁uyên	-6305
▁văng	-6306
▁vụng	-6307
▁Đánh	-6308
Speech	-6309
astian	-6310
▁2.000	-6311
▁Bruce	-6312
▁Doanh	-6313
▁Dolby	-6314
▁Essex	-6315
▁Gehry	-6316
▁Marsh	-6317
▁Meyer	-6318
▁Moses	-6319
▁Nhiếp	-6320
▁Oprah	-6321
▁Oscar	-6322
▁Santa	-6323
▁Stone	-6324
▁Trọng	-6325
▁White	-6326
▁biếng	-6327
▁chửng	-6328
atemala	-6329
sterdam	-6330
▁Barack	-6331
▁Bonnie	-6332
▁Justin	-6333
▁Latinh	-6334
▁Norman	-6335
▁Stefan	-6336
▁Tahrir	-6337
▁chuồng	-6338
▁Caltech	-6339
▁Langley	-6340
▁Tenness	-6341
▁Univers	-6342
▁Williams	-6343
▁progeria	-6344
▁Guatemala	-6345
▁pheromone	-6346
▁FreeSpeech	-6347
-4	-6348
.9	-6349
IC	-6350
ho	-6351
ệp	-6352
ỏm	-6353
201	-6354
MED	-6355
aba	-6356
aki	-6357
asa	-6358
ats	-6359
cas	-6360
gan	-6361
hen	-6362
its	-6363
jev	-6364
lot	-6365
mud	-6366
obo	-6367
ois	-6368
oke	-6369
oma	-6370
ote	-6371
rig	-6372
syl	-6373
yon	-6374
ẵng	-6375
▁67	-6376
▁AG	-6377
▁Dạ	-6378
▁HS	-6379
▁MA	-6380
▁Py	-6381
▁SS	-6382
▁Vẻ	-6383
▁Vợ	-6384
▁ZK	-6385
▁aw	-6386
▁is	-6387
▁rơ	-6388
▁rộ	-6389
▁yo	-6390
▁út	-6391
Talk	-6392
artz	-6393
elle	-6394
etts	-6395
evel	-6396
ingo	-6397
itan	-6398
ject	-6399
moud	-6400
rich	-6401
tion	-6402
untu	-6403
ynth	-6404
▁1-2	-6405
▁App	-6406
▁Ark	-6407
▁Aye	-6408
▁Coo	-6409
▁ESG	-6410
▁Fed	-6411
▁Fey	-6412
▁Giữ	-6413
▁Gri	-6414
▁Hỏi	-6415
▁INC	-6416
▁Kep	-6417
▁Kir	-6418
▁Kos	-6419
▁Lựa	-6420
▁Max	-6421
▁Men	-6422
▁Mik	-6423
▁Mir	-6424
▁NBA	-6425
▁Pic	-6426
▁Por	-6427
▁Sis	-6428
▁Sri	-6429
▁Tar	-6430
▁Tod	-6431
▁Uhm	-6432
▁bịa	-6433
▁cật	-6434
▁cội	-6435
▁daf	-6436
▁doo	-6437
▁dặn	-6438
▁giở	-6439
▁gặt	-6440
▁hót	-6441
▁hằn	-6442
▁kẽm	-6443
▁lầu	-6444
▁ngó	-6445
▁ngơ	-6446
▁noi	-6447
▁náu	-6448
▁pen	-6449
▁rụi	-6450
▁sên	-6451
▁sảo	-6452
▁sục	-6453
▁sụn	-6454
▁thê	-6455
▁túp	-6456
▁tấu	-6457
▁Độc	-6458
▁đấm	-6459
achus	-6460
awatt	-6461
eline	-6462
inder	-6463
leans	-6464
ookie	-6465
umara	-6466
vania	-6467
▁1986	-6468
▁2013	-6469
▁Band	-6470
▁Bono	-6471
▁Carr	-6472
▁Chen	-6473
▁Chụp	-6474
▁Coch	-6475
▁Cánh	-6476
▁Dừng	-6477
▁Econ	-6478
▁Hạnh	-6479
▁Irắc	-6480
▁Jake	-6481
▁Joey	-6482
▁Karl	-6483
▁Kate	-6484
▁Kent	-6485
▁Khám	-6486
▁Loan	-6487
▁PIPA	-6488
▁Post	-6489
▁Serg	-6490
▁Viễn	-6491
▁comp	-6492
▁copy	-6493
▁hoán	-6494
▁hoóc	-6495
▁khoả	-6496
▁ngấm	-6497
▁ngất	-6498
▁nhoi	-6499
▁nhút	-6500
▁nung	-6501
▁phồn	-6502
▁tuôn	-6503
▁viêc	-6504
▁váng	-6505
▁watt	-6506
▁10000	-6507
▁3,000	-6508
▁5,000	-6509
▁Ailen	-6510
▁Ariel	-6511
▁Austr	-6512
▁Bloom	-6513
▁Brand	-6514
▁Chồng	-6515
▁Harry	-6516
▁Intel	-6517
▁Jacqu	-6518
▁Maria	-6519
▁Moham	-6520
▁Phiên	-6521
▁Quyển	-6522
▁Solly	-6523
▁Stand	-6524
▁Stein	-6525
▁Tarah	-6526
▁Thula	-6527
▁Triển	-6528
▁Weibo	-6529
▁cello	-6530
▁chiêu	-6531
▁chững	-6532
▁khoát	-6533
▁loang	-6534
▁loãng	-6535
▁ngừơi	-6536
▁thiển	-6537
▁Archie	-6538
▁Carter	-6539
▁Chuyển	-6540
▁Cooper	-6541
▁Dennis	-6542
▁Kepler	-6543
▁Kibera	-6544
▁Miller	-6545
▁TEDMED	-6546
▁Toraja	-6547
▁khoanh	-6548
▁nhoáng	-6549
sylvania	-6550
▁Anthony	-6551
▁Gilbert	-6552
▁Goering	-6553
▁Ireland	-6554
▁Mahmoud	-6555
▁Orleans	-6556
▁TEDTalk	-6557
▁blogger	-6558
▁Arkansas	-6559
▁Nicholas	-6560
▁Palextin	-6561
▁Pantheon	-6562
▁TEDWomen	-6563
▁Tennessee	-6564
▁Tarahumara	-6565
▁Pennsylvania	-6566
,8	-6567
-6	-6568
EF	-6569
EG	-6570
Hz	-6571
OL	-6572
OS	-6573
cm	-6574
ki	-6575
yc	-6576
ém	-6577
êt	-6578
ôc	-6579
đi	-6580
▁ĩ	-6581
▁Ổ	-6582
▁ờ	-6583
agu	-6584
bao	-6585
bin	-6586
box	-6587
cam	-6588
eek	-6589
ega	-6590
egg	-6591
els	-6592
ets	-6593
eus	-6594
fli	-6595
gen	-6596
kar	-6597
oga	-6598
ogy	-6599
ria	-6600
ẩng	-6601
▁76	-6602
▁94	-6603
▁BP	-6604
▁CH	-6605
▁DD	-6606
▁Ge	-6607
▁Gì	-6608
▁Hồ	-6609
▁IK	-6610
▁Nổ	-6611
▁Ol	-6612
▁Sỹ	-6613
▁Xa	-6614
▁ar	-6615
▁eB	-6616
▁pa	-6617
▁rợ	-6618
▁Đề	-6619
▁Đủ	-6620
▁đả	-6621
amas	-6622
ambi	-6623
colm	-6624
dyss	-6625
eber	-6626
elli	-6627
erat	-6628
flix	-6629
holm	-6630
icut	-6631
iley	-6632
ilot	-6633
itha	-6634
jevo	-6635
moor	-6636
owan	-6637
pson	-6638
tail	-6639
tein	-6640
trol	-6641
zero	-6642
▁1.6	-6643
▁Bow	-6644
▁CIA	-6645
▁Chứ	-6646
▁Com	-6647
▁Dem	-6648
▁Dun	-6649
▁Dần	-6650
▁Fai	-6651
▁Git	-6652
▁Gol	-6653
▁Gul	-6654
▁Hit	-6655
▁Hmm	-6656
▁Hot	-6657
▁Lab	-6658
▁Les	-6659
▁Lyn	-6660
▁Mao	-6661
▁Nar	-6662
▁Nat	-6663
▁Nik	-6664
▁Sci	-6665
▁Sẵn	-6666
▁Tso	-6667
▁Tàu	-6668
▁Tái	-6669
▁Tốc	-6670
▁Tội	-6671
▁Tụi	-6672
▁Vây	-6673
▁Win	-6674
▁Woo	-6675
▁Yếu	-6676
▁cợt	-6677
▁dép	-6678
▁est	-6679
▁hop	-6680
▁lốc	-6681
▁mem	-6682
▁neo	-6683
▁núm	-6684
▁nại	-6685
▁nạt	-6686
▁nấp	-6687
▁râm	-6688
▁rẫy	-6689
▁rắm	-6690
▁rệp	-6691
▁sủa	-6692
▁vấp	-6693
▁vệt	-6694
▁vịn	-6695
▁xao	-6696
▁Đấu	-6697
▁đùi	-6698
Point	-6699
adore	-6700
aster	-6701
astle	-6702
atica	-6703
leton	-6704
lotte	-6705
những	-6706
yland	-6707
▁1500	-6708
▁1800	-6709
▁1985	-6710
▁1988	-6711
▁Andy	-6712
▁Barb	-6713
▁Brad	-6714
▁Bảng	-6715
▁Chìa	-6716
▁Chín	-6717
▁Fred	-6718
▁Hamp	-6719
▁Inst	-6720
▁Kiva	-6721
▁Kông	-6722
▁Mang	-6723
▁Nauy	-6724
▁Noah	-6725
▁Noel	-6726
▁Part	-6727
▁Phim	-6728
▁Shah	-6729
▁UCLA	-6730
▁Viên	-6731
▁Vàng	-6732
▁Vượt	-6733
▁Wang	-6734
▁Wind	-6735
▁choc	-6736
▁chậu	-6737
▁chộp	-6738
▁hỉnh	-6739
▁khoé	-6740
▁luồn	-6741
▁lình	-6742
▁lóng	-6743
▁măng	-6744
▁ngời	-6745
▁nách	-6746
▁sành	-6747
▁thét	-6748
▁thầu	-6749
▁tour	-6750
▁Đang	-6751
▁đong	-6752
oyager	-6753
▁Agnes	-6754
▁Ahmed	-6755
▁Bayes	-6756
▁Child	-6757
▁Found	-6758
▁Freud	-6759
▁Helen	-6760
▁Jason	-6761
▁Jimmy	-6762
▁Johan	-6763
▁Johns	-6764
▁Lanka	-6765
▁Libya	-6766
▁Linux	-6767
▁Nhanh	-6768
▁Nhiệt	-6769
▁Odyss	-6770
▁Phóng	-6771
▁Sioux	-6772
▁Tuyên	-6773
▁Video	-6774
▁Young	-6775
▁gamma	-6776
▁nghiã	-6777
▁water	-6778
ecticut	-6779
▁20,000	-6780
▁Aurora	-6781
▁Browne	-6782
▁Donald	-6783
▁Mathem	-6784
▁Rezero	-6785
▁thuyên	-6786
▁200,000	-6787
▁Hopkins	-6788
▁Jamaica	-6789
▁Malcolm	-6790
▁Scratch	-6791
▁Stanley	-6792
▁glucose	-6793
▁milimet	-6794
achusetts	-6795
▁Cochrane	-6796
▁Maryland	-6797
▁Palestin	-6798
▁Amsterdam	-6799
▁Broadmoor	-6800
▁Charlotte	-6801
▁Sebastian	-6802
▁chocolate	-6803
▁PowerPoint	-6804
▁Connecticut	-6805
▁Mathematica	-6806
.2	-6807
.7	-6808
ET	-6809
Le	-6810
Sh	-6811
aa	-6812
ax	-6813
gg	-6814
ji	-6815
lô	-6816
pp	-6817
rk	-6818
su	-6819
wa	-6820
ça	-6821
ỡi	-6822
aby	-6823
adi	-6824
ady	-6825
ano	-6826
ape	-6827
apm	-6828
bes	-6829
che	-6830
cop	-6831
dit	-6832
fel	-6833
iag	-6834
ios	-6835
lav	-6836
lev	-6837
lov	-6838
mét	-6839
och	-6840
oni	-6841
oro	-6842
ovo	-6843
rit	-6844
vin	-6845
yme	-6846
▁56	-6847
▁89	-6848
▁91	-6849
▁AT	-6850
▁HP	-6851
▁JK	-6852
▁JR	-6853
▁KB	-6854
▁Ly	-6855
▁Lễ	-6856
▁MW	-6857
▁Oz	-6858
▁SB	-6859
▁Wy	-6860
▁bl	-6861
▁bô	-6862
▁dế	-6863
▁lư	-6864
▁lở	-6865
▁nể	-6866
▁Án	-6867
▁đễ	-6868
alie	-6869
aman	-6870
anna	-6871
aren	-6872
arin	-6873
asso	-6874
atma	-6875
etas	-6876
hane	-6877
horn	-6878
iflu	-6879
itic	-6880
itts	-6881
mond	-6882
ough	-6883
phua	-6884
riel	-6885
roça	-6886
wait	-6887
west	-6888
xter	-6889
yota	-6890
▁1,3	-6891
▁188	-6892
▁2-3	-6893
▁3,5	-6894
▁Arm	-6895
▁Cro	-6896
▁Cựu	-6897
▁Hut	-6898
▁Imp	-6899
▁Kab	-6900
▁Kan	-6901
▁Kid	-6902
▁Liz	-6903
▁MBA	-6904
▁MBI	-6905
▁Mid	-6906
▁Mob	-6907
▁Món	-6908
▁Naj	-6909
▁Nao	-6910
▁Nhu	-6911
▁Nạn	-6912
▁Pia	-6913
▁Pur	-6914
▁Row	-6915
▁Rub	-6916
▁Sel	-6917
▁Spr	-6918
▁Sur	-6919
▁Vai	-6920
▁Vel	-6921
▁Viv	-6922
▁Wis	-6923
▁coc	-6924
▁cặn	-6925
▁cỏi	-6926
▁dem	-6927
▁dạt	-6928
▁dằn	-6929
▁hóm	-6930
▁mào	-6931
▁mồm	-6932
▁ngà	-6933
▁ngõ	-6934
▁par	-6935
▁qúi	-6936
▁rầm	-6937
▁rầu	-6938
▁sul	-6939
▁trơ	-6940
▁von	-6941
▁vạt	-6942
▁Đảo	-6943
▁Đốc	-6944
▁đần	-6945
▁ươm	-6946
Qaeda	-6947
ascal	-6948
atông	-6949
aysia	-6950
ipcar	-6951
organ	-6952
ortis	-6953
rogen	-6954
uchia	-6955
▁1940	-6956
▁1991	-6957
▁1993	-6958
▁7000	-6959
▁Anne	-6960
▁Bart	-6961
▁Bios	-6962
▁Buff	-6963
▁Diet	-6964
▁Dạng	-6965
▁Elec	-6966
▁Evel	-6967
▁Gapm	-6968
▁Giúp	-6969
▁Hind	-6970
▁Homo	-6971
▁Huck	-6972
▁IKEA	-6973
▁Juan	-6974
▁Khal	-6975
▁Luke	-6976
▁Mard	-6977
▁Mars	-6978
▁Nhịp	-6979
▁Pran	-6980
▁Sean	-6981
▁Shaw	-6982
▁Song	-6983
▁Sông	-6984
▁Tric	-6985
▁Vườn	-6986
▁Wire	-6987
▁chèn	-6988
▁chèo	-6989
▁chót	-6990
▁chập	-6991
▁cock	-6992
▁cồng	-6993
▁euro	-6994
▁ngòi	-6995
▁ngóc	-6996
▁ngợm	-6997
▁vượn	-6998
▁yoga	-6999
▁đước	-7000
everly	-7001
manuel	-7002
▁Danny	-7003
▁Elvis	-7004
▁Grant	-7005
▁Guard	-7006
▁Hirsh	-7007
▁INCRA	-7008
▁Jamie	-7009
▁Karen	-7010
▁Osama	-7011
▁Papua	-7012
▁Quyết	-7013
▁Radio	-7014
▁Rives	-7015
▁Scoop	-7016
▁Trình	-7017
▁chánh	-7018
▁giông	-7019
▁khánh	-7020
▁loanh	-7021
▁ngẩng	-7022
▁phiệt	-7023
▁quặng	-7024
▁ruộng	-7025
▁suyễn	-7026
eratops	-7027
▁40,000	-7028
▁40.000	-7029
▁Baxter	-7030
▁Bonnet	-7031
▁Brenda	-7032
▁Chuyên	-7033
▁Econom	-7034
▁Gordon	-7035
▁Harris	-7036
▁Ixaren	-7037
▁Khoảnh	-7038
▁Libăng	-7039
▁Monter	-7040
▁Pascal	-7041
▁Rivers	-7042
▁Wilson	-7043
▁proton	-7044
▁trướng	-7045
▁Bahamas	-7046
▁Beverly	-7047
▁Central	-7048
▁Freeman	-7049
▁Heather	-7050
▁Indiana	-7051
▁Mahatma	-7052
▁Netflix	-7053
▁Rockett	-7054
▁Russell	-7055
▁TEDster	-7056
▁Tamiflu	-7057
▁Voyager	-7058
▁Walmart	-7059
▁Malaysia	-7060
▁Odysseus	-7061
▁Robinson	-7062
▁Sarajevo	-7063
▁catadore	-7064
▁cocktail	-7065
▁maratông	-7066
▁Australia	-7067
▁Biosphere	-7068
▁Gapminder	-7069
▁Stockholm	-7070
▁Foundation	-7071
▁Triceratops	-7072
,2	-7073
.6	-7074
IP	-7075
iy	-7076
ju	-7077
lê	-7078
uh	-7079
ẻm	-7080
ỡn	-7081
▁Ơ	-7082
aid	-7083
anc	-7084
aro	-7085
bus	-7086
cer	-7087
fus	-7088
iba	-7089
jan	-7090
kim	-7091
met	-7092
oon	-7093
oss	-7094
uch	-7095
val	-7096
vet	-7097
yph	-7098
▁66	-7099
▁AC	-7100
▁Cú	-7101
▁Eb	-7102
▁Hỗ	-7103
▁LA	-7104
▁MP	-7105
▁Ow	-7106
▁PA	-7107
▁Po	-7108
▁TG	-7109
▁Tớ	-7110
▁Tờ	-7111
▁Up	-7112
▁Ut	-7113
▁ad	-7114
▁bở	-7115
▁dí	-7116
▁dó	-7117
▁ep	-7118
▁gt	-7119
▁gỉ	-7120
▁hũ	-7121
▁ni	-7122
▁nè	-7123
▁nỉ	-7124
▁oà	-7125
▁sò	-7126
▁đă	-7127
▁Ổn	-7128
ader	-7129
agas	-7130
anne	-7131
arak	-7132
arty	-7133
atan	-7134
côla	-7135
ende	-7136
etty	-7137
ides	-7138
imét	-7139
isco	-7140
load	-7141
oney	-7142
read	-7143
rett	-7144
vent	-7145
▁1.4	-7146
▁101	-7147
▁401	-7148
▁750	-7149
▁ARN	-7150
▁Alg	-7151
▁Alt	-7152
▁Ast	-7153
▁BBC	-7154
▁Bấy	-7155
▁Chả	-7156
▁Chỗ	-7157
▁Des	-7158
▁EEG	-7159
▁Gấp	-7160
▁Gọi	-7161
▁Heh	-7162
▁Hey	-7163
▁Hob	-7164
▁Hon	-7165
▁Hum	-7166
▁IMF	-7167
▁Kap	-7168
▁Kas	-7169
▁Las	-7170
▁Mub	-7171
▁Mẫu	-7172
▁Nin	-7173
▁Pac	-7174
▁Rec	-7175
▁Rem	-7176
▁Tân	-7177
▁Vừa	-7178
▁bur	-7179
▁bừa	-7180
▁chk	-7181
▁geo	-7182
▁giỏ	-7183
▁goá	-7184
▁gãi	-7185
▁lab	-7186
▁lõm	-7187
▁lộc	-7188
▁năn	-7189
▁rót	-7190
▁răn	-7191
▁rơm	-7192
▁rữa	-7193
▁sal	-7194
▁sen	-7195
▁túm	-7196
▁tợn	-7197
▁vớt	-7198
▁xua	-7199
ellon	-7200
evelt	-7201
ffiti	-7202
lashy	-7203
lickr	-7204
stone	-7205
tonia	-7206
umann	-7207
▁1918	-7208
▁1920	-7209
▁1957	-7210
▁1965	-7211
▁1973	-7212
▁1979	-7213
▁1983	-7214
▁2015	-7215
▁2500	-7216
▁Burn	-7217
▁Cass	-7218
▁Chim	-7219
▁Gian	-7220
▁Giảm	-7221
▁Java	-7222
▁Judy	-7223
▁Kend	-7224
▁Kurd	-7225
▁Lạnh	-7226
▁Mông	-7227
▁Nhảy	-7228
▁Ohio	-7229
▁Robb	-7230
▁Roos	-7231
▁Rừng	-7232
▁Trin	-7233
▁Troy	-7234
▁Trục	-7235
▁Tàng	-7236
▁Wide	-7237
▁chat	-7238
▁diox	-7239
▁diêm	-7240
▁ganh	-7241
▁kềnh	-7242
▁nhan	-7243
▁nhen	-7244
▁nhím	-7245
▁nhót	-7246
▁nhối	-7247
▁nành	-7248
▁quây	-7249
▁rain	-7250
▁rùng	-7251
▁thây	-7252
▁thềm	-7253
▁vãnh	-7254
▁vồng	-7255
linois	-7256
oshima	-7257
strong	-7258
ynthia	-7259
▁4.000	-7260
▁5.000	-7261
▁Broth	-7262
▁Casey	-7263
▁Chủng	-7264
▁Clark	-7265
▁Color	-7266
▁DARPA	-7267
▁Galil	-7268
▁Gayla	-7269
▁Geoff	-7270
▁Hướng	-7271
▁Linus	-7272
▁Molly	-7273
▁Naomi	-7274
▁Pilot	-7275
▁Pitts	-7276
▁Riley	-7277
▁Rufus	-7278
▁Thằng	-7279
▁Tweet	-7280
▁Vinci	-7281
▁Wales	-7282
▁Water	-7283
▁amino	-7284
▁chang	-7285
▁chuồn	-7286
▁chưng	-7287
▁jihad	-7288
▁nguời	-7289
▁nhung	-7290
▁nhuần	-7291
▁phước	-7292
▁token	-7293
▁trũng	-7294
anistan	-7295
centure	-7296
ocrates	-7297
ortisol	-7298
▁30,000	-7299
▁30.000	-7300
▁Achill	-7301
▁Bilbao	-7302
▁Critic	-7303
▁Flickr	-7304
▁Hitler	-7305
▁Hunter	-7306
▁Kosovo	-7307
▁Mellon	-7308
▁Michel	-7309
▁Sergey	-7310
▁Sisyph	-7311
▁Studio	-7312
▁Toyota	-7313
▁Viking	-7314
▁enzyme	-7315
▁google	-7316
▁Cynthia	-7317
▁Denisov	-7318
▁Gabriel	-7319
▁Georgia	-7320
▁Mubarak	-7321
▁Picasso	-7322
▁Tunisia	-7323
▁prôtein	-7324
▁Friedman	-7325
▁Guardian	-7326
▁Illinois	-7327
▁Marshall	-7328
▁Monterey	-7329
▁cortisol	-7330
▁estrogen	-7331
▁graffiti	-7332
▁Accenture	-7333
▁Campuchia	-7334
▁Hampshire	-7335
▁Hiroshima	-7336
▁Photoshop	-7337
▁Pittsburgh	-7338
▁Massachusetts	-7339
,4	-7340
-5	-7341
.3	-7342
ER	-7343
ES	-7344
HO	-7345
RN	-7346
ps	-7347
▁(	-7348
---	-7349
any	-7350
bab	-7351
eed	-7352
eka	-7353
erk	-7354
ery	-7355
ffe	-7356
ibb	-7357
iet	-7358
ior	-7359
ito	-7360
lic	-7361
mmm	-7362
oac	-7363
oul	-7364
rat	-7365
rập	-7366
uga	-7367
umi	-7368
xon	-7369
yce	-7370
yle	-7371
ổng	-7372
▁59	-7373
▁71	-7374
▁73	-7375
▁AI	-7376
▁HC	-7377
▁Id	-7378
▁LG	-7379
▁Lí	-7380
▁Lũ	-7381
▁MM	-7382
▁NG	-7383
▁NI	-7384
▁PC	-7385
▁Pe	-7386
▁TD	-7387
▁Tạ	-7388
▁US	-7389
▁au	-7390
▁lẹ	-7391
▁mm	-7392
▁pl	-7393
▁té	-7394
▁uý	-7395
▁vơ	-7396
▁vể	-7397
▁úp	-7398
▁ắp	-7399
▁ừm	-7400
Prin	-7401
abin	-7402
acre	-7403
adus	-7404
ames	-7405
anan	-7406
burn	-7407
egal	-7408
esar	-7409
gram	-7410
idro	-7411
incl	-7412
ivic	-7413
ment	-7414
nick	-7415
onia	-7416
onie	-7417
ords	-7418
orth	-7419
othy	-7420
ouri	-7421
quez	-7422
raft	-7423
rass	-7424
reat	-7425
rice	-7426
ryst	-7427
tern	-7428
ucky	-7429
unch	-7430
unes	-7431
uten	-7432
uyễn	-7433
wick	-7434
yrne	-7435
zone	-7436
▁0.5	-7437
▁1.8	-7438
▁1⁄4	-7439
▁202	-7440
▁365	-7441
▁ABC	-7442
▁Ath	-7443
▁Bin	-7444
▁Bit	-7445
▁Blu	-7446
▁Bre	-7447
▁Bầu	-7448
▁Bữa	-7449
▁Cod	-7450
▁Cos	-7451
▁Cấp	-7452
▁Gió	-7453
▁Hem	-7454
▁Hoạ	-7455
▁Hud	-7456
▁Hơi	-7457
▁Key	-7458
▁Khơ	-7459
▁Kia	-7460
▁LOL	-7461
▁Lur	-7462
▁Lối	-7463
▁Lớp	-7464
▁Mây	-7465
▁Mãi	-7466
▁Nev	-7467
▁Núi	-7468
▁Ola	-7469
▁Pav	-7470
▁Pho	-7471
▁Pin	-7472
▁Pre	-7473
▁Rep	-7474
▁Reu	-7475
▁Rốt	-7476
▁Sag	-7477
▁Sar	-7478
▁Suz	-7479
▁Thi	-7480
▁Vis	-7481
▁bùa	-7482
▁bùm	-7483
▁bổn	-7484
▁chừ	-7485
▁dặt	-7486
▁for	-7487
▁gợn	-7488
▁héo	-7489
▁hòm	-7490
▁hạc	-7491
▁hốt	-7492
▁lồi	-7493
▁mix	-7494
▁ngỡ	-7495
▁nều	-7496
▁phỉ	-7497
▁rao	-7498
▁rèm	-7499
▁rên	-7500
▁rợn	-7501
▁sầu	-7502
▁sồi	-7503
▁ten	-7504
▁trờ	-7505
▁usd	-7506
▁vụt	-7507
▁wow	-7508
▁yến	-7509
▁đên	-7510
efoot	-7511
esome	-7512
icill	-7513
ilton	-7514
pines	-7515
▁1858	-7516
▁1949	-7517
▁1962	-7518
▁1982	-7519
▁8000	-7520
▁Bach	-7521
▁Balk	-7522
▁Bong	-7523
▁CERN	-7524
▁Cape	-7525
▁Chin	-7526
▁Chơi	-7527
▁Clev	-7528
▁Comp	-7529
▁Corn	-7530
▁Diam	-7531
▁Duol	-7532
▁Euro	-7533
▁Gard	-7534
▁Gene	-7535
▁Glad	-7536
▁Head	-7537
▁Hunt	-7538
▁Khắp	-7539
▁Limb	-7540
▁Lắng	-7541
▁Ngồi	-7542
▁Pach	-7543
▁Phép	-7544
▁Phẫu	-7545
▁Pyth	-7546
▁Show	-7547
▁Snow	-7548
▁Thoả	-7549
▁Tiện	-7550
▁Trải	-7551
▁USDA	-7552
▁beat	-7553
▁biêt	-7554
▁chao	-7555
▁chém	-7556
▁chần	-7557
▁chừa	-7558
▁demo	-7559
▁eBay	-7560
▁giời	-7561
▁gàng	-7562
▁khay	-7563
▁khắt	-7564
▁khứu	-7565
▁laze	-7566
▁micr	-7567
▁mách	-7568
▁mùng	-7569
▁mắng	-7570
▁neut	-7571
▁ngạt	-7572
▁ngầu	-7573
▁nhàn	-7574
▁nháp	-7575
▁nhõm	-7576
▁nhúm	-7577
▁nhầy	-7578
▁nitơ	-7579
▁okay	-7580
▁sofa	-7581
▁sững	-7582
▁thòi	-7583
▁toái	-7584
▁trăn	-7585
▁tuột	-7586
▁xiết	-7587
▁đuợc	-7588
▁đùng	-7589
Prince	-7590
ingham	-7591
muddin	-7592
nesota	-7593
stream	-7594
▁1,500	-7595
▁4,000	-7596
▁Actor	-7597
▁Cohen	-7598
▁Davis	-7599
▁Ellen	-7600
▁Encel	-7601
▁Exxon	-7602
▁Faiza	-7603
▁House	-7604
▁Hyder	-7605
▁Jacob	-7606
▁Jihad	-7607
▁Kabul	-7608
▁Khuôn	-7609
▁Klein	-7610
▁Media	-7611
▁Paula	-7612
▁Perry	-7613
▁Prize	-7614
▁Roman	-7615
▁Serra	-7616
▁Sheph	-7617
▁Sincl	-7618
▁Trách	-7619
▁Tuyết	-7620
▁Xuyên	-7621
▁chuộc	-7622
▁chũng	-7623
▁civic	-7624
▁huyện	-7625
▁nhứng	-7626
▁oxide	-7627
▁phách	-7628
▁trans	-7629
▁tròng	-7630
ambique	-7631
icillin	-7632
▁12.000	-7633
▁60,000	-7634
▁Amanda	-7635
▁Canyon	-7636
▁Church	-7637
▁Clonie	-7638
▁Evelyn	-7639
▁Hamlet	-7640
▁Jeremy	-7641
▁Malawi	-7642
▁Reddit	-7643
▁School	-7644
▁Thưởng	-7645
▁Venter	-7646
▁bonobo	-7647
▁helium	-7648
▁nghĩnh	-7649
▁ngượng	-7650
▁photon	-7651
▁Bandura	-7652
▁Barbara	-7653
▁England	-7654
▁Galileo	-7655
▁Jacques	-7656
▁Michoac	-7657
▁Ottoman	-7658
▁Senegal	-7659
▁Terence	-7660
▁Ukraine	-7661
▁complex	-7662
▁Barefoot	-7663
▁Colorado	-7664
▁Emmanuel	-7665
▁Olympics	-7666
▁Sinclair	-7667
▁hormones	-7668
▁Christian	-7669
▁Enceladus	-7670
▁Minnesota	-7671
▁Najmuddin	-7672
▁Riverside	-7673
▁Roosevelt	-7674
▁Afganistan	-7675
▁Mozambique	-7676
▁Transition	-7677
▁penicillin	-7678
,3	-7679
,9	-7680
.8	-7681
DR	-7682
LV	-7683
ML	-7684
OO	-7685
OV	-7686
TO	-7687
TT	-7688
bi	-7689
bê	-7690
dt	-7691
gs	-7692
uj	-7693
wl	-7694
éc	-7695
ĩu	-7696
▁@	-7697
▁í	-7698
ARS	-7699
MRI	-7700
abi	-7701
afi	-7702
ams	-7703
bar	-7704
bul	-7705
dad	-7706
dan	-7707
dor	-7708
eli	-7709
ema	-7710
fer	-7711
fia	-7712
fri	-7713
gie	-7714
hop	-7715
imi	-7716
ise	-7717
iêc	-7718
kin	-7719
lam	-7720
lau	-7721
ogh	-7722
oit	-7723
osp	-7724
rag	-7725
ras	-7726
rea	-7727
ret	-7728
rez	-7729
rik	-7730
sen	-7731
uke	-7732
uza	-7733
õng	-7734
▁05	-7735
▁62	-7736
▁63	-7737
▁83	-7738
▁88	-7739
▁Ay	-7740
▁BK	-7741
▁Bỉ	-7742
▁DC	-7743
▁GV	-7744
▁Gã	-7745
▁Kĩ	-7746
▁Lẽ	-7747
▁SI	-7748
▁Sợ	-7749
▁Tù	-7750
▁Us	-7751
▁as	-7752
▁cl	-7753
▁dơ	-7754
▁ed	-7755
▁eo	-7756
▁ft	-7757
▁gù	-7758
▁hê	-7759
▁lự	-7760
▁my	-7761
▁mó	-7762
▁nu	-7763
▁vò	-7764
▁đờ	-7765
▁	-7766
n	-7767
h	-7768
t	-7769
i	-7770
c	-7771
g	-7772
a	-7773
à	-7774
đ	-7775
u	-7776
m	-7777
o	-7778
l	-7779
r	-7780
v	-7781
y	-7782
ư	-7783
ô	-7784
b	-7785
,	-7786
á	-7787
ó	-7788
.	-7789
k	-7790
s	-7791
p	-7792
ế	-7793
ạ	-7794
ộ	-7795
ả	-7796
ấ	-7797
ú	-7798
ệ	-7799
ề	-7800
ể	-7801
ờ	-7802
d	-7803
ì	-7804
ớ	-7805
ố	-7806
ê	-7807
ữ	-7808
â	-7809
q	-7810
e	-7811
ự	-7812
ậ	-7813
ủ	-7814
ọ	-7815
ơ	-7816
ợ	-7817
ở	-7818
ầ	-7819
ã	-7820
T	-7821
ứ	-7822
í	-7823
V	-7824
x	-7825
C	-7826
N	-7827
ị	-7828
ă	-7829
;	-7830
ắ	-7831
&	-7832
-	-7833
ụ	-7834
ẽ	-7835
ừ	-7836
ồ	-7837
ằ	-7838
Đ	-7839
ổ	-7840
0	-7841
ặ	-7842
ĩ	-7843
ù	-7844
1	-7845
ò	-7846
B	-7847
ỏ	-7848
ỉ	-7849
M	-7850
?	-7851
ử	-7852
H	-7853
ũ	-7854
ý	-7855
é	-7856
ẻ	-7857
K	-7858
S	-7859
:	-7860
A	-7861
ỗ	-7862
ẫ	-7863
2	-7864
D	-7865
ẩ	-7866
L	-7867
ễ	-7868
P	-7869
G	-7870
3	-7871
5	-7872
ẹ	-7873
9	-7874
R	-7875
ỹ	-7876
w	-7877
E	-7878
ẳ	-7879
I	-7880
4	-7881
ỡ	-7882
ỷ	-7883
ỳ	-7884
f	-7885
Q	-7886
õ	-7887
è	-7888
J	-7889
8	-7890
6	-7891
7	-7892
O	-7893
W	-7894
z	-7895
F	-7896
X	-7897
%	-7898
Ô	-7899
Y	-7900
!	-7901
#	-7902
Ở	-7903
ẵ	-7904
U	-7905
Ý	-7906
Ấ	-7907
j	-7908
Â	-7909
/	-7910
ỵ	-7911
Z	-7912
Ồ	-7913
Á	-7914
Ả	-7915
$	-7916
À	-7917
Ú	-7918
–	-7919
Ừ	-7920
Ư	-7921
Í	-7922
—	-7923
+	-7924
Ă	-7925
=	-7926
Ứ	-7927
Ờ	-7928
)	-7929
⁄	-7930
Ẩ	-7931
Ơ	-7932
ç	-7933
Ổ	-7934
Ê	-7935
(	-7936
@	-7937
_	-7938
̣	-7939
Ố	-7940
Ì	-7941
Ộ	-7942
*	-7943
ö	-7944
`	-7945
ø	-7946
Ạ	-7947
Ủ	-7948
\	-7949
©	-7950
ü	-7951
Ậ	-7952
Ắ	-7953
Ế	-7954
Ù	-7955
อ	-7956
	-7957
}	-7958
~	-7959
£	-7960
Ã	-7961
ä	-7962
̀	-7963
́	-7964
Ầ	-7965
Ể	-7966
Ệ	-7967
Ự	-7968
{	-7969
É	-7970
Ó	-7971
ë	-7972
ć	-7973
ย	-7974
ร	-7975
่	-7976
Ẻ	-7977
Ị	-7978
Ọ	-7979
Ử	-7980
	-7981
®	-7982
ï	-7983
ñ	-7984
ā	-7985
Č	-7986
Ĩ	-7987
Ť	-7988
Ỉ	-7989
Ỗ	-7990
Ớ	-7991
Ụ	-7992
Ữ	-7993
Ỵ	-7994
€	-7995
