<pad>	0
<unk>	0
<s>	0
</s>	0
▁t	-0
▁th	-1
▁a	-2
in	-3
▁,	-4
▁w	-5
▁the	-6
re	-7
▁.	-8
▁o	-9
▁s	-10
at	-11
nd	-12
er	-13
ou	-14
▁c	-15
is	-16
▁&	-17
it	-18
os	-19
▁b	-20
ing	-21
▁m	-22
en	-23
ap	-24
▁h	-25
on	-26
▁to	-27
▁p	-28
▁f	-29
es	-30
an	-31
apos	-32
▁d	-33
or	-34
▁of	-35
al	-36
▁I	-37
▁in	-38
▁and	-39
ed	-40
▁l	-41
ar	-42
ot	-43
▁y	-44
▁that	-45
om	-46
▁g	-47
as	-48
ic	-49
le	-50
ve	-51
▁you	-52
ll	-53
▁n	-54
▁we	-55
▁wh	-56
ow	-57
▁e	-58
▁A	-59
us	-60
▁is	-61
ly	-62
▁be	-63
ut	-64
ion	-65
▁it	-66
et	-67
▁T	-68
▁re	-69
ent	-70
qu	-71
ct	-72
▁on	-73
ld	-74
ver	-75
ay	-76
id	-77
▁Th	-78
▁And	-79
▁ha	-80
im	-81
▁S	-82
▁this	-83
ur	-84
ig	-85
▁st	-86
ch	-87
ere	-88
quot	-89
ro	-90
ke	-91
▁for	-92
ce	-93
▁W	-94
if	-95
se	-96
▁was	-97
ir	-98
am	-99
op	-100
ith	-101
▁an	-102
▁do	-103
st	-104
▁are	-105
ol	-106
ally	-107
▁with	-108
th	-109
▁have	-110
ra	-111
▁ab	-112
▁go	-113
▁u	-114
▁they	-115
▁se	-116
▁can	-117
▁k	-118
▁B	-119
ation	-120
▁as	-121
▁-	-122
▁--	-123
out	-124
ht	-125
▁li	-126
▁sh	-127
▁wor	-128
ad	-129
▁So	-130
▁?	-131
▁what	-132
▁he	-133
od	-134
▁me	-135
ould	-136
▁com	-137
ill	-138
very	-139
▁ne	-140
▁at	-141
▁about	-142
ge	-143
ter	-144
ant	-145
▁not	-146
ul	-147
il	-148
▁so	-149
ore	-150
▁The	-151
▁fr	-152
▁all	-153
ust	-154
ers	-155
▁j	-156
▁ex	-157
▁ch	-158
▁de	-159
▁r	-160
▁us	-161
▁my	-162
ight	-163
▁som	-164
▁pro	-165
▁pe	-166
ear	-167
▁or	-168
art	-169
ess	-170
ople	-171
▁We	-172
▁there	-173
▁con	-174
ck	-175
ate	-176
▁people	-177
▁It	-178
▁like	-179
um	-180
ure	-181
ies	-182
ok	-183
▁N	-184
ive	-185
▁one	-186
▁from	-187
est	-188
ist	-189
ity	-190
nt	-191
▁lo	-192
ble	-193
▁H	-194
▁ma	-195
▁M	-196
▁kn	-197
▁our	-198
use	-199
▁bec	-200
▁v	-201
ind	-202
▁but	-203
▁te	-204
ect	-205
rou	-206
▁out	-207
▁al	-208
ink	-209
▁:	-210
all	-211
▁int	-212
un	-213
▁C	-214
ause	-215
▁just	-216
ide	-217
▁know	-218
▁sp	-219
and	-220
▁them	-221
▁thing	-222
ie	-223
▁tr	-224
▁But	-225
▁see	-226
▁these	-227
her	-228
▁if	-229
ort	-230
ci	-231
▁who	-232
▁up	-233
▁Y	-234
▁think	-235
▁very	-236
▁get	-237
el	-238
ich	-239
▁by	-240
one	-241
▁when	-242
ain	-243
▁pl	-244
▁act	-245
▁your	-246
▁more	-247
▁1	-248
iv	-249
▁Wh	-250
▁some	-251
▁going	-252
▁im	-253
▁year	-254
▁because	-255
em	-256
▁had	-257
our	-258
▁sa	-259
▁would	-260
ost	-261
▁were	-262
og	-263
▁how	-264
ame	-265
▁their	-266
ine	-267
▁O	-268
▁tim	-269
ose	-270
ast	-271
▁which	-272
ment	-273
▁work	-274
▁su	-275
▁want	-276
▁really	-277
▁look	-278
iz	-279
ually	-280
are	-281
▁comp	-282
gh	-283
00	-284
act	-285
reat	-286
ous	-287
ard	-288
▁way	-289
▁E	-290
ack	-291
▁en	-292
▁ta	-293
▁world	-294
▁P	-295
ab	-296
hing	-297
▁le	-298
▁D	-299
▁You	-300
ans	-301
▁exp	-302
ag	-303
ther	-304
▁here	-305
ong	-306
▁then	-307
▁time	-308
▁has	-309
▁This	-310
▁G	-311
pp	-312
▁L	-313
ions	-314
▁every	-315
▁per	-316
▁say	-317
app	-318
alk	-319
age	-320
▁don	-321
▁actually	-322
▁man	-323
▁qu	-324
▁into	-325
▁ev	-326
ace	-327
▁could	-328
ud	-329
ence	-330
res	-331
▁will	-332
ild	-333
▁F	-334
▁fe	-335
▁years	-336
▁did	-337
▁now	-338
▁other	-339
▁Now	-340
▁In	-341
ach	-342
▁things	-343
▁ag	-344
itt	-345
▁where	-346
iff	-347
nder	-348
▁no	-349
ff	-350
▁They	-351
ical	-352
▁somet	-353
ice	-354
▁diff	-355
▁happ	-356
▁make	-357
▁need	-358
▁un	-359
▁any	-360
▁than	-361
▁tw	-362
▁cl	-363
▁pr	-364
▁been	-365
▁R	-366
ip	-367
so	-368
▁imp	-369
irst	-370
ome	-371
▁said	-372
▁start	-373
▁2	-374
ia	-375
▁ar	-376
ife	-377
red	-378
▁part	-379
ory	-380
ree	-381
ry	-382
pt	-383
▁co	-384
▁over	-385
▁bu	-386
▁something	-387
▁two	-388
own	-389
uch	-390
ite	-391
orm	-392
▁right	-393
▁dis	-394
ount	-395
ass	-396
ang	-397
round	-398
ign	-399
▁back	-400
▁much	-401
ep	-402
ib	-403
▁differe	-404
ound	-405
▁first	-406
▁new	-407
sel	-408
ac	-409
▁call	-410
ens	-411
▁she	-412
▁talk	-413
ue	-414
▁those	-415
▁J	-416
rain	-417
▁po	-418
▁mo	-419
▁also	-420
olog	-421
▁spe	-422
ater	-423
ves	-424
▁got	-425
cent	-426
lo	-427
▁ro	-428
▁life	-429
ght	-430
▁cont	-431
king	-432
ult	-433
▁lot	-434
▁kind	-435
ple	-436
ittle	-437
▁ac	-438
vel	-439
▁little	-440
way	-441
▁under	-442
▁bet	-443
ody	-444
▁his	-445
▁That	-446
ber	-447
▁most	-448
oss	-449
ru	-450
ving	-451
▁ph	-452
▁am	-453
▁fo	-454
▁res	-455
ell	-456
▁day	-457
▁only	-458
ated	-459
able	-460
▁even	-461
ations	-462
▁What	-463
▁her	-464
ial	-465
▁des	-466
co	-467
▁ad	-468
ict	-469
▁bo	-470
▁many	-471
▁take	-472
▁different	-473
▁;	-474
rough	-475
▁good	-476
ank	-477
▁sy	-478
ire	-479
▁show	-480
du	-481
▁hum	-482
ick	-483
▁em	-484
▁real	-485
ance	-486
▁ide	-487
▁U	-488
ase	-489
▁gr	-490
▁through	-491
▁around	-492
int	-493
▁does	-494
cess	-495
▁He	-496
other	-497
▁There	-498
ak	-499
ning	-500
▁pre	-501
▁comm	-502
ish	-503
ents	-504
form	-505
▁tell	-506
▁off	-507
▁down	-508
ms	-509
ange	-510
▁being	-511
ath	-512
▁put	-513
ress	-514
▁use	-515
▁wr	-516
ible	-517
▁thou	-518
▁proble	-519
ful	-520
ade	-521
wn	-522
▁happen	-523
▁sm	-524
ors	-525
les	-526
ark	-527
ary	-528
▁inc	-529
xt	-530
ether	-531
ject	-532
▁fact	-533
ual	-534
▁Ch	-535
day	-536
▁same	-537
▁count	-538
▁Well	-539
lect	-540
iver	-541
ord	-542
▁sc	-543
ne	-544
▁br	-545
▁may	-546
ower	-547
▁try	-548
▁come	-549
ces	-550
▁big	-551
stem	-552
ys	-553
▁If	-554
ting	-555
ile	-556
▁gen	-557
▁pers	-558
per	-559
urn	-560
ars	-561
tern	-562
▁three	-563
▁dec	-564
▁doing	-565
ved	-566
▁find	-567
▁great	-568
ons	-569
▁sur	-570
▁exper	-571
chn	-572
ically	-573
self	-574
te	-575
▁human	-576
▁K	-577
▁percent	-578
cial	-579
▁quest	-580
fter	-581
▁tra	-582
▁well	-583
▁brain	-584
fore	-585
▁child	-586
be	-587
nds	-588
▁system	-589
we	-590
ics	-591
ied	-592
▁app	-593
▁lear	-594
▁let	-595
▁own	-596
▁stud	-597
body	-598
▁called	-599
▁techn	-600
▁why	-601
▁ind	-602
ating	-603
▁sim	-604
igh	-605
thing	-606
ian	-607
▁ra	-608
▁inv	-609
ition	-610
av	-611
▁cr	-612
illion	-613
▁build	-614
▁made	-615
▁gu	-616
▁wom	-617
▁bl	-618
ren	-619
▁bel	-620
ology	-621
ric	-622
ates	-623
▁rem	-624
▁again	-625
▁should	-626
ious	-627
▁import	-628
mer	-629
▁col	-630
▁underst	-631
▁creat	-632
▁ask	-633
▁long	-634
con	-635
ize	-636
lp	-637
▁Thank	-638
▁change	-639
olut	-640
▁person	-641
ities	-642
ty	-643
ub	-644
▁ins	-645
▁end	-646
▁today	-647
lic	-648
cho	-649
pe	-650
▁feel	-651
▁Be	-652
▁didn	-653
▁thought	-654
▁important	-655
▁after	-656
ail	-657
▁idea	-658
▁fl	-659
▁3	-660
amp	-661
▁mean	-662
▁sci	-663
ft	-664
ise	-665
he	-666
▁cour	-667
ew	-668
▁ob	-669
chool	-670
▁St	-671
▁last	-672
▁help	-673
▁started	-674
erest	-675
▁understand	-676
▁trans	-677
▁went	-678
▁bas	-679
▁its	-680
ull	-681
▁inst	-682
ese	-683
ope	-684
▁rel	-685
▁before	-686
▁story	-687
▁belie	-688
▁problem	-689
ily	-690
▁might	-691
kes	-692
▁ke	-693
▁dr	-694
ough	-695
▁car	-696
▁design	-697
als	-698
▁power	-699
▁play	-700
ob	-701
gan	-702
#9	-703
▁&#9	-704
ave	-705
▁pol	-706
▁produ	-707
▁interest	-708
▁him	-709
▁never	-710
▁How	-711
000	-712
▁art	-713
▁inter	-714
▁give	-715
▁course	-716
▁better	-717
ular	-718
und	-719
▁kid	-720
▁cons	-721
▁school	-722
▁turn	-723
▁still	-724
▁able	-725
▁fam	-726
▁found	-727
ists	-728
ction	-729
ility	-730
old	-731
▁ent	-732
▁imag	-733
▁point	-734
▁few	-735
ert	-736
▁learn	-737
▁bit	-738
ven	-739
ience	-740
▁When	-741
oc	-742
velop	-743
▁came	-744
ix	-745
ween	-746
ather	-747
▁commun	-748
▁next	-749
▁str	-750
atch	-751
,000	-752
▁tog	-753
▁together	-754
pl	-755
ness	-756
▁each	-757
▁another	-758
▁dat	-759
ng	-760
oth	-761
▁cell	-762
erg	-763
▁love	-764
uc	-765
▁exam	-766
ited	-767
▁comple	-768
▁between	-769
▁question	-770
ense	-771
▁develop	-772
read	-773
alth	-774
▁high	-775
ized	-776
▁ago	-777
▁num	-778
arch	-779
▁mod	-780
▁sl	-781
▁sort	-782
▁19	-783
▁10	-784
ward	-785
az	-786
▁cre	-787
iss	-788
▁place	-789
ork	-790
▁word	-791
▁min	-792
▁used	-793
▁mon	-794
iness	-795
▁data	-796
▁20	-797
ph	-798
▁pat	-799
cy	-800
ings	-801
ures	-802
meric	-803
▁four	-804
ways	-805
▁grow	-806
▁ext	-807
▁too	-808
▁gra	-809
oney	-810
▁ser	-811
▁women	-812
▁mom	-813
▁att	-814
▁plan	-815
▁example	-816
aph	-817
▁light	-818
formation	-819
▁med	-820
▁fin	-821
▁la	-822
ood	-823
▁met	-824
ific	-825
ced	-826
conom	-827
ered	-828
▁old	-829
▁water	-830
cept	-831
▁Bec	-832
▁read	-833
▁done	-834
▁op	-835
▁Americ	-836
▁Because	-837
▁live	-838
▁care	-839
▁small	-840
▁less	-841
▁doesn	-842
ets	-843
▁wanted	-844
▁technology	-845
cond	-846
▁mus	-847
ative	-848
ah	-849
ger	-850
▁beh	-851
▁looking	-852
▁Af	-853
ably	-854
▁always	-855
▁chang	-856
▁believe	-857
▁ed	-858
▁rec	-859
▁cent	-860
selves	-861
ale	-862
▁econom	-863
▁money	-864
▁eff	-865
▁V	-866
ands	-867
▁children	-868
▁ever	-869
▁partic	-870
▁giv	-871
▁gener	-872
▁comput	-873
▁5	-874
▁expl	-875
▁reas	-876
▁working	-877
▁poss	-878
▁whole	-879
▁teach	-880
▁rep	-881
▁far	-882
▁bus	-883
▁ter	-884
▁away	-885
▁book	-886
▁hard	-887
▁project	-888
▁ear	-889
ational	-890
▁information	-891
▁move	-892
▁My	-893
▁dem	-894
▁country	-895
▁4	-896
led	-897
▁nat	-898
▁trying	-899
▁kids	-900
nce	-901
▁home	-902
▁el	-903
▁food	-904
▁create	-905
▁mind	-906
▁Un	-907
▁reg	-908
▁health	-909
ries	-910
air	-911
▁resp	-912
vers	-913
▁lar	-914
ural	-915
hip	-916
▁run	-917
ote	-918
▁As	-919
▁stu	-920
▁bi	-921
▁frie	-922
cer	-923
ird	-924
▁lead	-925
olution	-926
▁means	-927
▁using	-928
▁million	-929
▁five	-930
atter	-931
ism	-932
nect	-933
▁eng	-934
ments	-935
pr	-936
ont	-937
ract	-938
wh	-939
▁vis	-940
▁pict	-941
gg	-942
gr	-943
▁fun	-944
▁sk	-945
▁cou	-946
ident	-947
▁supp	-948
▁become	-949
▁pass	-950
▁sub	-951
▁sing	-952
▁process	-953
ins	-954
▁open	-955
ines	-956
▁hand	-957
▁maybe	-958
▁space	-959
▁fut	-960
ruct	-961
▁acc	-962
▁inf	-963
its	-964
aut	-965
▁doll	-966
▁conf	-967
ten	-968
▁pub	-969
ories	-970
iron	-971
▁took	-972
▁One	-973
▁second	-974
▁thinking	-975
ED	-976
aces	-977
▁cor	-978
▁compan	-979
▁everything	-980
▁share	-981
rib	-982
▁anim	-983
▁walk	-984
▁future	-985
ond	-986
▁cap	-987
▁form	-988
sw	-989
▁best	-990
▁organ	-991
▁energ	-992
▁says	-993
▁quite	-994
roup	-995
▁She	-996
▁!	-997
iew	-998
ention	-999
ues	-1000
▁prob	-1001
ivers	-1002
▁social	-1003
▁Is	-1004
▁contro	-1005
▁number	-1006
▁soci	-1007
▁sol	-1008
ogr	-1009
▁enough	-1010
iting	-1011
vern	-1012
alf	-1013
lob	-1014
▁elect	-1015
▁answ	-1016
▁left	-1017
ek	-1018
▁lives	-1019
▁head	-1020
▁comes	-1021
ake	-1022
ety	-1023
ner	-1024
▁pop	-1025
▁cle	-1026
▁Afric	-1027
▁No	-1028
ertain	-1029
▁energy	-1030
▁getting	-1031
▁Why	-1032
ouse	-1033
▁Chin	-1034
▁group	-1035
arr	-1036
▁These	-1037
▁beg	-1038
▁body	-1039
kay	-1040
▁making	-1041
irl	-1042
▁pres	-1043
cus	-1044
ier	-1045
▁TED	-1046
▁Ind	-1047
ital	-1048
▁times	-1049
▁month	-1050
▁For	-1051
▁env	-1052
ying	-1053
▁rese	-1054
▁set	-1055
▁val	-1056
ever	-1057
▁room	-1058
ts	-1059
▁aut	-1060
▁moment	-1061
▁happened	-1062
▁spec	-1063
▁sense	-1064
reen	-1065
▁makes	-1066
▁countries	-1067
ices	-1068
▁probably	-1069
tty	-1070
▁job	-1071
▁sound	-1072
▁without	-1073
ross	-1074
▁Let	-1075
▁govern	-1076
▁An	-1077
▁connect	-1078
▁business	-1079
▁keep	-1080
▁talking	-1081
imes	-1082
▁dollars	-1083
▁interesting	-1084
▁top	-1085
▁pie	-1086
▁war	-1087
idd	-1088
ior	-1089
▁beaut	-1090
▁music	-1091
▁research	-1092
uring	-1093
▁dist	-1094
angu	-1095
io	-1096
▁def	-1097
▁reason	-1098
▁experience	-1099
▁told	-1100
▁200	-1101
▁add	-1102
▁phot	-1103
aps	-1104
▁pretty	-1105
lobal	-1106
▁environ	-1107
▁ty	-1108
▁educ	-1109
▁hist	-1110
▁else	-1111
▁science	-1112
▁minut	-1113
▁young	-1114
▁cur	-1115
▁ey	-1116
▁such	-1117
▁across	-1118
▁cult	-1119
▁phys	-1120
▁allow	-1121
▁simple	-1122
▁wo	-1123
▁stand	-1124
▁opp	-1125
ided	-1126
▁polit	-1127
▁det	-1128
ient	-1129
ately	-1130
▁cells	-1131
▁matter	-1132
▁cho	-1133
▁langu	-1134
▁men	-1135
▁saw	-1136
▁sign	-1137
▁stuff	-1138
▁half	-1139
▁vide	-1140
bo	-1141
▁case	-1142
▁side	-1143
▁eas	-1144
▁ways	-1145
▁asked	-1146
▁living	-1147
der	-1148
▁Here	-1149
▁prot	-1150
▁stop	-1151
ember	-1152
▁scient	-1153
▁New	-1154
▁family	-1155
▁mor	-1156
▁model	-1157
▁inside	-1158
work	-1159
▁anything	-1160
ead	-1161
ortun	-1162
▁hour	-1163
gs	-1164
▁building	-1165
▁mem	-1166
ality	-1167
▁hope	-1168
▁week	-1169
▁bring	-1170
▁bad	-1171
▁list	-1172
▁happens	-1173
llow	-1174
▁later	-1175
1;	-1176
3;	-1177
▁goes	-1178
▁&#91;	-1179
▁&#93;	-1180
man	-1181
ograph	-1182
▁coming	-1183
where	-1184
▁while	-1185
ulation	-1186
ince	-1187
lf	-1188
ught	-1189
▁char	-1190
▁wrong	-1191
ream	-1192
▁particular	-1193
▁rest	-1194
ime	-1195
▁All	-1196
▁lab	-1197
▁suc	-1198
▁pain	-1199
▁global	-1200
end	-1201
▁mark	-1202
▁single	-1203
▁bre	-1204
ilt	-1205
▁watch	-1206
▁environment	-1207
▁air	-1208
most	-1209
▁ref	-1210
▁yet	-1211
▁problems	-1212
uge	-1213
iter	-1214
ott	-1215
▁fig	-1216
ivid	-1217
▁age	-1218
▁girl	-1219
▁equ	-1220
▁prof	-1221
arent	-1222
▁sit	-1223
▁days	-1224
▁having	-1225
▁wonder	-1226
orn	-1227
▁heart	-1228
▁begin	-1229
▁thous	-1230
▁complete	-1231
▁seen	-1232
▁control	-1233
▁someone	-1234
▁mach	-1235
▁myself	-1236
▁words	-1237
▁answer	-1238
▁effect	-1239
▁public	-1240
▁billion	-1241
less	-1242
ash	-1243
ape	-1244
aterial	-1245
▁certain	-1246
ots	-1247
▁level	-1248
▁often	-1249
ization	-1250
▁saying	-1251
▁amaz	-1252
eng	-1253
▁rob	-1254
▁hear	-1255
▁within	-1256
▁picture	-1257
▁loc	-1258
no	-1259
▁ideas	-1260
▁six	-1261
▁looked	-1262
ike	-1263
itive	-1264
▁test	-1265
▁self	-1266
▁sure	-1267
▁whether	-1268
▁both	-1269
▁possible	-1270
▁city	-1271
▁product	-1272
ters	-1273
med	-1274
▁kill	-1275
▁computer	-1276
▁fore	-1277
▁community	-1278
▁Ear	-1279
▁dev	-1280
▁once	-1281
ling	-1282
iverse	-1283
▁nothing	-1284
▁Al	-1285
▁30	-1286
lish	-1287
▁video	-1288
▁language	-1289
▁Se	-1290
▁dise	-1291
▁true	-1292
▁exact	-1293
up	-1294
▁class	-1295
ants	-1296
▁pos	-1297
▁Africa	-1298
side	-1299
▁fil	-1300
unch	-1301
▁unt	-1302
aper	-1303
▁individ	-1304
▁material	-1305
gram	-1306
▁works	-1307
▁almost	-1308
▁news	-1309
▁blo	-1310
▁cond	-1311
rem	-1312
▁sw	-1313
▁entire	-1314
▁che	-1315
▁iss	-1316
▁mag	-1317
▁night	-1318
rop	-1319
▁amazing	-1320
ware	-1321
ury	-1322
ready	-1323
pect	-1324
ering	-1325
▁9	-1326
ene	-1327
▁par	-1328
▁beautif	-1329
▁incred	-1330
de	-1331
ases	-1332
iddle	-1333
▁face	-1334
▁remember	-1335
▁chall	-1336
▁disco	-1337
▁basically	-1338
▁individual	-1339
▁Earth	-1340
▁heard	-1341
▁imagine	-1342
undred	-1343
▁50	-1344
▁gl	-1345
▁spend	-1346
▁cost	-1347
▁decided	-1348
▁looks	-1349
ely	-1350
▁Do	-1351
▁ass	-1352
▁treat	-1353
▁Or	-1354
▁already	-1355
▁exc	-1356
▁full	-1357
▁Intern	-1358
▁history	-1359
uck	-1360
get	-1361
▁aff	-1362
▁guy	-1363
imate	-1364
▁friends	-1365
ages	-1366
▁tool	-1367
▁experim	-1368
▁past	-1369
ives	-1370
ustr	-1371
ock	-1372
▁built	-1373
▁wa	-1374
▁net	-1375
▁contin	-1376
▁adv	-1377
▁success	-1378
ired	-1379
▁dire	-1380
▁6	-1381
▁United	-1382
▁15	-1383
osed	-1384
▁stories	-1385
▁ret	-1386
▁hundred	-1387
ken	-1388
▁Fr	-1389
atic	-1390
▁figure	-1391
▁collect	-1392
ex	-1393
▁Sh	-1394
ield	-1395
vious	-1396
▁Okay	-1397
▁state	-1398
▁follow	-1399
▁couple	-1400
▁pay	-1401
▁beautiful	-1402
▁wasn	-1403
▁order	-1404
▁months	-1405
▁result	-1406
▁piece	-1407
▁government	-1408
▁education	-1409
bs	-1410
cing	-1411
land	-1412
▁large	-1413
to	-1414
▁At	-1415
▁program	-1416
▁Every	-1417
▁free	-1418
▁sec	-1419
ional	-1420
▁huge	-1421
▁train	-1422
▁minutes	-1423
▁7	-1424
▁became	-1425
ivity	-1426
▁until	-1427
▁deep	-1428
▁Ar	-1429
▁ca	-1430
▁taking	-1431
bers	-1432
ising	-1433
▁universe	-1434
▁const	-1435
▁though	-1436
▁society	-1437
▁view	-1438
ret	-1439
ames	-1440
▁everybody	-1441
▁woman	-1442
br	-1443
▁8	-1444
etic	-1445
ined	-1446
▁100	-1447
ush	-1448
ision	-1449
▁quick	-1450
▁themselves	-1451
▁dra	-1452
▁learned	-1453
▁must	-1454
▁front	-1455
▁engine	-1456
ental	-1457
▁appro	-1458
▁incre	-1459
▁planet	-1460
ared	-1461
▁team	-1462
▁exactly	-1463
▁Br	-1464
aster	-1465
▁complex	-1466
▁jo	-1467
ians	-1468
▁States	-1469
▁Internet	-1470
▁di	-1471
▁mil	-1472
▁created	-1473
omes	-1474
▁focus	-1475
aking	-1476
▁gets	-1477
▁cancer	-1478
▁..	-1479
line	-1480
▁inno	-1481
▁speak	-1482
▁...	-1483
▁China	-1484
▁behav	-1485
sy	-1486
▁fund	-1487
▁completely	-1488
▁—	-1489
▁house	-1490
outh	-1491
▁Can	-1492
▁study	-1493
▁happening	-1494
▁sex	-1495
▁vir	-1496
▁knew	-1497
▁struct	-1498
ane	-1499
thers	-1500
ats	-1501
▁name	-1502
▁hours	-1503
▁questions	-1504
▁Go	-1505
▁somebody	-1506
ien	-1507
▁prov	-1508
▁nature	-1509
▁places	-1510
dd	-1511
cul	-1512
▁isn	-1513
▁kinds	-1514
ability	-1515
▁itself	-1516
eah	-1517
▁vo	-1518
▁law	-1519
▁shows	-1520
▁bab	-1521
icult	-1522
▁ourselves	-1523
▁ve	-1524
▁cra	-1525
▁game	-1526
▁against	-1527
▁emp	-1528
▁av	-1529
▁ones	-1530
▁difference	-1531
▁abs	-1532
▁meet	-1533
itting	-1534
▁everyone	-1535
ones	-1536
▁dep	-1537
▁listen	-1538
cle	-1539
gest	-1540
ogn	-1541
▁mess	-1542
aw	-1543
iqu	-1544
▁Then	-1545
▁opportun	-1546
▁others	-1547
ee	-1548
▁since	-1549
▁parent	-1550
vation	-1551
▁clear	-1552
▁Oh	-1553
▁expect	-1554
▁object	-1555
▁students	-1556
▁close	-1557
row	-1558
ute	-1559
▁gave	-1560
▁worked	-1561
▁sometimes	-1562
ming	-1563
▁invest	-1564
▁mother	-1565
▁explain	-1566
▁relations	-1567
asure	-1568
olved	-1569
▁hold	-1570
att	-1571
▁Pe	-1572
▁ris	-1573
istic	-1574
▁company	-1575
▁line	-1576
▁difficult	-1577
▁rather	-1578
ern	-1579
▁rad	-1580
acter	-1581
iol	-1582
ator	-1583
▁dru	-1584
▁won	-1585
ature	-1586
▁fail	-1587
▁third	-1588
ients	-1589
▁aud	-1590
▁India	-1591
▁couldn	-1592
▁disease	-1593
cc	-1594
lud	-1595
▁neur	-1596
▁God	-1597
▁surpr	-1598
▁thousands	-1599
haps	-1600
▁mass	-1601
▁American	-1602
▁interact	-1603
urs	-1604
▁deal	-1605
▁impro	-1606
ibly	-1607
▁Eng	-1608
▁simp	-1609
▁network	-1610
ctor	-1611
▁bott	-1612
▁miss	-1613
▁America	-1614
▁pot	-1615
ential	-1616
ination	-1617
ider	-1618
▁amount	-1619
▁land	-1620
▁happy	-1621
illions	-1622
iversity	-1623
▁da	-1624
omet	-1625
▁ill	-1626
▁norm	-1627
▁outside	-1628
▁typ	-1629
▁liter	-1630
▁changed	-1631
▁learning	-1632
ks	-1633
▁arch	-1634
▁powerful	-1635
aring	-1636
▁coll	-1637
▁emot	-1638
▁step	-1639
▁takes	-1640
▁cir	-1641
▁oil	-1642
▁along	-1643
▁del	-1644
▁early	-1645
▁market	-1646
▁systems	-1647
▁behavior	-1648
▁rev	-1649
▁Some	-1650
▁wind	-1651
▁ident	-1652
▁population	-1653
ron	-1654
ump	-1655
▁Eur	-1656
▁sens	-1657
▁death	-1658
elt	-1659
▁On	-1660
▁turns	-1661
▁least	-1662
▁instead	-1663
▁species	-1664
▁ele	-1665
▁jour	-1666
▁black	-1667
▁during	-1668
▁mic	-1669
▁guys	-1670
▁pred	-1671
▁short	-1672
▁present	-1673
▁z	-1674
not	-1675
▁fly	-1676
▁fear	-1677
▁machine	-1678
oh	-1679
wards	-1680
▁culture	-1681
ift	-1682
▁lots	-1683
sych	-1684
▁democ	-1685
▁middle	-1686
▁animals	-1687
▁To	-1688
vered	-1689
ither	-1690
▁York	-1691
▁oper	-1692
▁stre	-1693
▁realized	-1694
ased	-1695
▁eat	-1696
▁easy	-1697
fect	-1698
▁mot	-1699
▁extra	-1700
▁paper	-1701
▁yourself	-1702
▁green	-1703
▁fre	-1704
▁fall	-1705
▁grand	-1706
▁given	-1707
▁recent	-1708
▁protect	-1709
▁arg	-1710
▁var	-1711
▁image	-1712
▁dig	-1713
▁mole	-1714
ony	-1715
ully	-1716
ption	-1717
▁dream	-1718
▁hands	-1719
▁behind	-1720
▁natural	-1721
astic	-1722
verage	-1723
jor	-1724
▁cut	-1725
▁needed	-1726
ery	-1727
ium	-1728
▁es	-1729
ides	-1730
▁simply	-1731
leep	-1732
▁ant	-1733
ove	-1734
▁math	-1735
▁needs	-1736
▁personal	-1737
▁saf	-1738
▁fight	-1739
▁father	-1740
▁relationship	-1741
▁eyes	-1742
▁exist	-1743
▁seven	-1744
▁non	-1745
▁colle	-1746
▁finally	-1747
▁low	-1748
▁pract	-1749
▁field	-1750
▁12	-1751
face	-1752
room	-1753
▁leave	-1754
▁companies	-1755
▁hy	-1756
▁century	-1757
era	-1758
year	-1759
▁tem	-1760
▁economic	-1761
ode	-1762
▁red	-1763
▁stay	-1764
ledge	-1765
▁trad	-1766
▁Europe	-1767
▁Re	-1768
▁felt	-1769
itions	-1770
▁perform	-1771
oph	-1772
inary	-1773
▁local	-1774
▁major	-1775
els	-1776
▁18	-1777
▁media	-1778
▁support	-1779
▁political	-1780
ney	-1781
▁bro	-1782
ource	-1783
▁area	-1784
▁terr	-1785
▁turned	-1786
▁super	-1787
▁access	-1788
▁40	-1789
avor	-1790
▁lim	-1791
cious	-1792
▁value	-1793
▁obvious	-1794
rew	-1795
vent	-1796
ially	-1797
▁famil	-1798
▁common	-1799
osp	-1800
ived	-1801
▁sun	-1802
▁serv	-1803
▁psych	-1804
▁taken	-1805
▁ple	-1806
▁break	-1807
▁spent	-1808
▁People	-1809
▁friend	-1810
ological	-1811
▁perhaps	-1812
▁communic	-1813
▁beginning	-1814
ison	-1815
▁emb	-1816
▁chem	-1817
▁cannot	-1818
NA	-1819
rodu	-1820
idence	-1821
▁record	-1822
▁seeing	-1823
▁pattern	-1824
ows	-1825
▁tre	-1826
▁strong	-1827
▁key	-1828
▁moving	-1829
orth	-1830
▁viol	-1831
▁extrem	-1832
▁longer	-1833
ipp	-1834
ument	-1835
▁sent	-1836
ills	-1837
cr	-1838
ann	-1839
▁parts	-1840
▁leaders	-1841
rought	-1842
gen	-1843
ook	-1844
inal	-1845
▁leg	-1846
▁eight	-1847
▁May	-1848
▁Not	-1849
fully	-1850
▁mult	-1851
▁surv	-1852
▁perfect	-1853
▁quickly	-1854
▁wonderful	-1855
▁photograph	-1856
iving	-1857
▁draw	-1858
▁began	-1859
▁reach	-1860
ule	-1861
unt	-1862
▁growth	-1863
▁cal	-1864
▁size	-1865
▁event	-1866
▁ground	-1867
▁includ	-1868
cl	-1869
itch	-1870
▁Just	-1871
ources	-1872
▁terms	-1873
▁experiment	-1874
▁film	-1875
▁parents	-1876
uth	-1877
▁ess	-1878
▁absolut	-1879
▁special	-1880
lt	-1881
mb	-1882
crib	-1883
▁cool	-1884
▁requ	-1885
port	-1886
▁squ	-1887
▁lost	-1888
ung	-1889
hood	-1890
▁Yes	-1891
itect	-1892
▁pick	-1893
ole	-1894
▁cy	-1895
▁win	-1896
▁box	-1897
▁tot	-1898
▁impact	-1899
▁robot	-1900
▁write	-1901
▁cities	-1902
▁cam	-1903
▁travel	-1904
▁Chr	-1905
▁send	-1906
▁vers	-1907
▁morning	-1908
▁buy	-1909
▁oce	-1910
▁near	-1911
▁tried	-1912
▁images	-1913
▁repres	-1914
▁ge	-1915
▁Man	-1916
▁anal	-1917
ler	-1918
ilar	-1919
rent	-1920
▁Our	-1921
▁knowledge	-1922
oud	-1923
▁enc	-1924
▁occ	-1925
ustain	-1926
by	-1927
bor	-1928
▁civ	-1929
ised	-1930
ribut	-1931
▁dead	-1932
▁recogn	-1933
▁bene	-1934
▁approach	-1935
ively	-1936
▁insp	-1937
▁situ	-1938
cially	-1939
▁spread	-1940
▁poor	-1941
▁Tw	-1942
▁conv	-1943
▁feed	-1944
▁risk	-1945
▁weeks	-1946
▁consum	-1947
▁average	-1948
▁architect	-1949
▁measure	-1950
▁attention	-1951
ales	-1952
▁obs	-1953
▁direct	-1954
▁sitting	-1955
▁opportunity	-1956
▁sum	-1957
ances	-1958
▁camp	-1959
▁sleep	-1960
▁feeling	-1961
▁reality	-1962
▁auth	-1963
▁caus	-1964
▁rele	-1965
▁wouldn	-1966
▁English	-1967
▁meaning	-1968
ards	-1969
▁DNA	-1970
▁Yeah	-1971
▁dest	-1972
ression	-1973
▁either	-1974
▁whatever	-1975
zy	-1976
ateg	-1977
itut	-1978
ators	-1979
▁flo	-1980
oy	-1981
▁born	-1982
iction	-1983
▁changes	-1984
apt	-1985
▁ap	-1986
enge	-1987
ggest	-1988
izing	-1989
▁comb	-1990
▁brought	-1991
▁economy	-1992
eed	-1993
▁opt	-1994
anger	-1995
▁orig	-1996
▁suggest	-1997
▁structure	-1998
acy	-1999
cks	-2000
com	-2001
ton	-2002
▁yes	-2003
▁fast	-2004
▁based	-2005
▁books	-2006
ibility	-2007
▁giving	-2008
▁respons	-2009
▁interested	-2010
erm	-2011
▁25	-2012
orld	-2013
▁physical	-2014
ored	-2015
iny	-2016
aged	-2017
dden	-2018
▁die	-2019
▁ice	-2020
▁With	-2021
▁growing	-2022
▁profess	-2023
ext	-2024
▁stage	-2025
▁tools	-2026
▁voice	-2027
▁sudden	-2028
▁ability	-2029
▁favor	-2030
▁seems	-2031
▁animal	-2032
▁developed	-2033
xy	-2034
▁gone	-2035
▁hosp	-2036
▁indust	-2037
▁modern	-2038
▁circ	-2039
▁Right	-2040
▁fac	-2041
▁ste	-2042
▁stat	-2043
▁known	-2044
racy	-2045
▁soft	-2046
loy	-2047
▁blue	-2048
▁realize	-2049
▁Le	-2050
▁eye	-2051
▁/	-2052
▁Z	-2053
▁Ph	-2054
▁priv	-2055
▁affect	-2056
▁dark	-2057
ug	-2058
▁aw	-2059
ouch	-2060
▁foot	-2061
▁redu	-2062
▁press	-2063
asc	-2064
ains	-2065
▁har	-2066
▁fire	-2067
▁smart	-2068
▁numbers	-2069
▁vac	-2070
▁crit	-2071
▁pull	-2072
▁text	-2073
▁issue	-2074
▁wrote	-2075
▁challenge	-2076
▁developing	-2077
urb	-2078
▁invent	-2079
▁scientists	-2080
ites	-2081
lict	-2082
▁main	-2083
▁thank	-2084
▁climate	-2085
▁describ	-2086
▁running	-2087
▁incredible	-2088
▁By	-2089
▁understanding	-2090
sh	-2091
▁nice	-2092
amples	-2093
▁Chinese	-2094
▁pur	-2095
▁path	-2096
▁poll	-2097
▁humans	-2098
▁creating	-2099
▁starting	-2100
ged	-2101
ral	-2102
▁sho	-2103
▁save	-2104
▁bottom	-2105
▁sustain	-2106
▁tradition	-2107
▁civil	-2108
▁audience	-2109
bon	-2110
chie	-2111
▁road	-2112
ai	-2113
▁aren	-2114
ensive	-2115
▁girls	-2116
▁millions	-2117
of	-2118
vert	-2119
▁hor	-2120
▁post	-2121
▁playing	-2122
▁scale	-2123
▁solution	-2124
▁color	-2125
▁knows	-2126
▁writing	-2127
▁hot	-2128
▁benef	-2129
▁neigh	-2130
▁convers	-2131
▁tele	-2132
▁alone	-2133
▁literally	-2134
oon	-2135
gress	-2136
▁intern	-2137
pecially	-2138
ny	-2139
omen	-2140
ister	-2141
▁slow	-2142
▁song	-2143
▁blood	-2144
▁relig	-2145
▁anyone	-2146
▁mov	-2147
▁seem	-2148
▁areas	-2149
▁De	-2150
amed	-2151
▁rul	-2152
▁Where	-2153
▁World	-2154
▁online	-2155
▁telling	-2156
ik	-2157
lu	-2158
▁fem	-2159
▁gives	-2160
▁guess	-2161
▁concept	-2162
▁innovation	-2163
icy	-2164
par	-2165
istan	-2166
▁baby	-2167
▁truth	-2168
▁hon	-2169
▁wall	-2170
▁worth	-2171
▁development	-2172
▁Pr	-2173
erence	-2174
▁asking	-2175
▁predict	-2176
▁experien	-2177
▁rate	-2178
▁soon	-2179
▁type	-2180
▁vill	-2181
▁solve	-2182
▁prop	-2183
▁forward	-2184
▁hundreds	-2185
▁patients	-2186
let	-2187
▁bra	-2188
▁deg	-2189
▁phone	-2190
▁technolog	-2191
▁lif	-2192
▁depe	-2193
▁patient	-2194
iet	-2195
▁prom	-2196
▁showed	-2197
por	-2198
▁Goog	-2199
▁theory	-2200
▁transform	-2201
▁discovered	-2202
▁suff	-2203
▁peace	-2204
▁white	-2205
▁cop	-2206
▁imm	-2207
▁avail	-2208
▁force	-2209
▁normal	-2210
▁OK	-2211
▁fa	-2212
irth	-2213
ellig	-2214
go	-2215
▁er	-2216
book	-2217
ique	-2218
▁sil	-2219
▁sounds	-2220
erv	-2221
▁arr	-2222
▁vol	-2223
asing	-2224
▁trust	-2225
entially	-2226
▁current	-2227
▁ast	-2228
▁South	-2229
▁center	-2230
▁produce	-2231
▁pictures	-2232
▁especially	-2233
▁generation	-2234
▁feet	-2235
▁subject	-2236
▁industry	-2237
▁represent	-2238
▁mar	-2239
ified	-2240
▁fundam	-2241
▁proper	-2242
▁movement	-2243
▁plant	-2244
▁similar	-2245
▁incredibly	-2246
▁Im	-2247
▁stra	-2248
▁ocean	-2249
▁talked	-2250
▁challeng	-2251
▁changing	-2252
▁materials	-2253
▁potential	-2254
ify	-2255
ley	-2256
▁bed	-2257
usion	-2258
▁serious	-2259
yond	-2260
▁cars	-2261
▁games	-2262
▁compet	-2263
▁teachers	-2264
iod	-2265
chan	-2266
▁touch	-2267
▁bur	-2268
▁surface	-2269
abor	-2270
imens	-2271
osing	-2272
oll	-2273
iant	-2274
▁Joh	-2275
▁chance	-2276
▁involved	-2277
▁resources	-2278
▁absolutely	-2279
▁okay	-2280
▁achie	-2281
▁haven	-2282
▁conflict	-2283
ences	-2284
▁defin	-2285
▁Google	-2286
▁issues	-2287
isions	-2288
▁table	-2289
▁evolution	-2290
▁sell	-2291
assion	-2292
▁shape	-2293
▁track	-2294
▁journey	-2295
▁happiness	-2296
▁ball	-2297
ilities	-2298
▁period	-2299
▁son	-2300
▁marr	-2301
▁among	-2302
▁carbon	-2303
pre	-2304
▁sn	-2305
ival	-2306
▁Don	-2307
▁danger	-2308
▁detail	-2309
▁groups	-2310
▁function	-2311
bit	-2312
ero	-2313
ran	-2314
▁ult	-2315
▁rece	-2316
▁tiny	-2317
▁micro	-2318
▁beyond	-2319
▁visual	-2320
▁general	-2321
▁schools	-2322
▁intellig	-2323
▁available	-2324
like	-2325
▁sat	-2326
▁birth	-2327
▁necess	-2328
▁technologies	-2329
yr	-2330
▁fur	-2331
▁lay	-2332
▁stru	-2333
▁message	-2334
ades	-2335
▁est	-2336
oring	-2337
▁flow	-2338
▁choice	-2339
▁street	-2340
▁vision	-2341
▁democracy	-2342
▁situation	-2343
▁prin	-2344
▁sold	-2345
▁tend	-2346
▁rules	-2347
▁hit	-2348
▁device	-2349
▁recently	-2350
str	-2351
▁60	-2352
▁80	-2353
head	-2354
▁dou	-2355
▁rich	-2356
▁electric	-2357
put	-2358
▁11	-2359
▁flu	-2360
▁John	-2361
▁wish	-2362
▁breat	-2363
▁cause	-2364
▁medic	-2365
▁react	-2366
▁projects	-2367
light	-2368
ency	-2369
▁lea	-2370
▁fair	-2371
▁meth	-2372
iar	-2373
osph	-2374
▁Com	-2375
▁map	-2376
arily	-2377
ishing	-2378
▁miles	-2379
▁attack	-2380
▁account	-2381
▁revolution	-2382
▁individuals	-2383
▁fu	-2384
▁neg	-2385
odies	-2386
▁likely	-2387
▁becomes	-2388
▁putting	-2389
▁tells	-2390
▁memory	-2391
▁office	-2392
▁digital	-2393
▁walking	-2394
cuss	-2395
▁boy	-2396
▁sea	-2397
▁cross	-2398
apan	-2399
▁199	-2400
▁activ	-2401
▁drive	-2402
▁bigger	-2403
ips	-2404
ned	-2405
uit	-2406
▁Am	-2407
▁died	-2408
ressed	-2409
▁After	-2410
▁First	-2411
▁Japan	-2412
▁passion	-2413
oms	-2414
▁Inst	-2415
▁Maybe	-2416
▁creative	-2417
▁evidence	-2418
uly	-2419
▁arm	-2420
▁except	-2421
▁mechan	-2422
▁reasons	-2423
ma	-2424
yn	-2425
▁medical	-2426
▁designed	-2427
▁ce	-2428
eter	-2429
ires	-2430
rage	-2431
ously	-2432
▁action	-2433
▁search	-2434
▁results	-2435
oke	-2436
▁Of	-2437
▁cit	-2438
▁div	-2439
▁mob	-2440
▁compassion	-2441
ask	-2442
ges	-2443
pan	-2444
une	-2445
fort	-2446
▁Look	-2447
▁improve	-2448
ted	-2449
▁tar	-2450
cient	-2451
▁West	-2452
▁cris	-2453
▁emerg	-2454
▁towards	-2455
▁everywhere	-2456
antly	-2457
▁drug	-2458
▁nine	-2459
▁aware	-2460
▁blind	-2461
▁clean	-2462
▁crazy	-2463
▁lived	-2464
▁waste	-2465
IV	-2466
medi	-2467
view	-2468
▁Who	-2469
▁ready	-2470
▁favorite	-2471
▁software	-2472
▁conscious	-2473
agn	-2474
more	-2475
▁lose	-2476
▁phil	-2477
▁prim	-2478
▁basic	-2479
▁starts	-2480
▁teacher	-2481
▁institut	-2482
▁particip	-2483
ama	-2484
ores	-2485
▁led	-2486
▁unf	-2487
▁bird	-2488
▁cart	-2489
▁gt	-2490
▁lt	-2491
onse	-2492
ctors	-2493
ished	-2494
▁rain	-2495
olutions	-2496
▁certainly	-2497
▁Are	-2498
▁HIV	-2499
▁taught	-2500
▁biggest	-2501
▁examples	-2502
▁scientific	-2503
edom	-2504
▁onto	-2505
▁minds	-2506
▁trial	-2507
▁bacter	-2508
ina	-2509
▁rid	-2510
▁moved	-2511
▁print	-2512
▁screen	-2513
▁transl	-2514
▁further	-2515
▁obviously	-2516
▁Ge	-2517
▁TV	-2518
▁pu	-2519
▁mis	-2520
estern	-2521
▁citiz	-2522
▁molec	-2523
▁moral	-2524
▁sever	-2525
izations	-2526
▁introdu	-2527
▁quality	-2528
▁extraord	-2529
▁progress	-2530
▁violence	-2531
▁computers	-2532
▁particularly	-2533
ala	-2534
anc	-2535
ude	-2536
umb	-2537
▁ep	-2538
▁Brit	-2539
▁code	-2540
▁encou	-2541
▁meant	-2542
ruction	-2543
▁camera	-2544
▁content	-2545
▁context	-2546
▁showing	-2547
▁neighbor	-2548
▁Car	-2549
▁din	-2550
urity	-2551
▁faster	-2552
ech	-2553
▁East	-2554
ground	-2555
▁apart	-2556
▁choose	-2557
▁consider	-2558
▁communities	-2559
rab	-2560
▁mount	-2561
▁report	-2562
▁threat	-2563
▁national	-2564
amm	-2565
▁Sw	-2566
▁graph	-2567
▁indeed	-2568
▁af	-2569
ners	-2570
▁adm	-2571
▁door	-2572
▁safe	-2573
▁author	-2574
▁region	-2575
▁response	-2576
▁decisions	-2577
▁surprising	-2578
come	-2579
▁whe	-2580
oming	-2581
▁vacc	-2582
▁solar	-2583
▁forest	-2584
▁several	-2585
▁student	-2586
▁hospital	-2587
eth	-2588
akes	-2589
nces	-2590
ture	-2591
▁Even	-2592
▁drugs	-2593
▁magic	-2594
▁totally	-2595
ims	-2596
ging	-2597
rast	-2598
▁Dav	-2599
▁sand	-2600
others	-2601
▁brains	-2602
▁connected	-2603
▁ec	-2604
▁Mar	-2605
▁cloud	-2606
▁worse	-2607
▁societ	-2608
nal	-2609
▁Most	-2610
▁virus	-2611
▁positive	-2612
▁remark	-2613
▁strateg	-2614
ucle	-2615
▁bar	-2616
▁fix	-2617
▁fant	-2618
▁ther	-2619
▁virt	-2620
▁wait	-2621
▁assum	-2622
▁nobody	-2623
▁prison	-2624
▁collabor	-2625
ued	-2626
▁dam	-2627
▁swe	-2628
▁Afgh	-2629
▁jobs	-2630
▁North	-2631
▁carry	-2632
▁wants	-2633
▁immedi	-2634
▁watching	-2635
conds	-2636
place	-2637
verty	-2638
▁fish	-2639
▁grew	-2640
▁mine	-2641
▁shown	-2642
▁chemical	-2643
ops	-2644
atory	-2645
▁push	-2646
▁webs	-2647
▁adult	-2648
▁stick	-2649
▁allowed	-2650
dom	-2651
tend	-2652
▁spir	-2653
▁influ	-2654
▁detect	-2655
▁mental	-2656
▁notice	-2657
▁return	-2658
▁perspect	-2659
▁training	-2660
how	-2661
▁16	-2662
iger	-2663
▁Cal	-2664
▁dom	-2665
▁skin	-2666
▁finan	-2667
▁movie	-2668
▁bodies	-2669
▁infect	-2670
▁method	-2671
▁village	-2672
▁decision	-2673
▁including	-2674
oid	-2675
▁Cl	-2676
ffic	-2677
idge	-2678
oles	-2679
▁rock	-2680
▁trees	-2681
▁Christ	-2682
▁appear	-2683
▁anybody	-2684
▁discuss	-2685
▁objects	-2686
▁studies	-2687
▁continue	-2688
▁position	-2689
▁suddenly	-2690
▁character	-2691
ays	-2692
iers	-2693
▁fasc	-2694
▁univers	-2695
soci	-2696
agine	-2697
▁farm	-2698
▁fill	-2699
ughter	-2700
▁largest	-2701
▁activity	-2702
▁buildings	-2703
ief	-2704
▁Tod	-2705
▁bal	-2706
▁bom	-2707
▁ign	-2708
▁bank	-2709
▁fine	-2710
▁named	-2711
▁Afghan	-2712
▁eventually	-2713
▁14	-2714
inct	-2715
ought	-2716
▁clos	-2717
▁wife	-2718
▁separ	-2719
▁crisis	-2720
▁stress	-2721
▁temper	-2722
▁poverty	-2723
▁Ad	-2724
icle	-2725
▁201	-2726
▁Pro	-2727
▁truly	-2728
▁minute	-2729
▁Q	-2730
men	-2731
ped	-2732
▁deb	-2733
itary	-2734
itten	-2735
▁luck	-2736
▁forms	-2737
▁nucle	-2738
▁prote	-2739
▁depend	-2740
▁income	-2741
▁killed	-2742
▁conditions	-2743
▁traditional	-2744
▁conversation	-2745
ror	-2746
▁90	-2747
▁conc	-2748
▁mist	-2749
istics	-2750
▁David	-2751
▁ended	-2752
▁plants	-2753
▁source	-2754
▁anymore	-2755
▁excited	-2756
▁specific	-2757
▁supposed	-2758
▁syn	-2759
▁narr	-2760
▁speed	-2761
licated	-2762
ologist	-2763
▁artist	-2764
▁products	-2765
▁signific	-2766
▁extremely	-2767
erve	-2768
eless	-2769
ining	-2770
▁clin	-2771
▁labor	-2772
▁effort	-2773
▁politics	-2774
▁solutions	-2775
enn	-2776
cise	-2777
▁Any	-2778
ulate	-2779
▁pack	-2780
▁finding	-2781
▁provide	-2782
▁X	-2783
aid	-2784
aur	-2785
cip	-2786
sect	-2787
▁Act	-2788
igher	-2789
▁goal	-2790
▁kept	-2791
▁role	-2792
▁alive	-2793
▁sorts	-2794
ossible	-2795
▁accept	-2796
▁allows	-2797
▁disapp	-2798
▁points	-2799
▁secret	-2800
▁skills	-2801
▁college	-2802
▁exciting	-2803
fr	-2804
▁earl	-2805
▁Which	-2806
▁cases	-2807
▁African	-2808
ev	-2809
zz	-2810
for	-2811
▁oxy	-2812
▁rap	-2813
useum	-2814
▁Today	-2815
▁publish	-2816
▁listening	-2817
▁societies	-2818
▁extraordinary	-2819
▁Isl	-2820
▁War	-2821
▁enj	-2822
▁Arab	-2823
▁link	-2824
▁wild	-2825
▁above	-2826
▁higher	-2827
▁mathem	-2828
▁surger	-2829
▁freedom	-2830
▁service	-2831
▁thousand	-2832
ros	-2833
▁13	-2834
▁Ste	-2835
▁jud	-2836
▁cook	-2837
▁late	-2838
▁trou	-2839
▁doctor	-2840
▁employ	-2841
▁weight	-2842
yl	-2843
▁Bra	-2844
▁hop	-2845
▁sch	-2846
▁purp	-2847
▁afford	-2848
▁fascin	-2849
▁models	-2850
▁strugg	-2851
▁reading	-2852
▁families	-2853
▁successful	-2854
50	-2855
ube	-2856
cape	-2857
here	-2858
iest	-2859
▁doc	-2860
▁bunch	-2861
▁corre	-2862
▁loved	-2863
▁smell	-2864
▁calcul	-2865
▁determ	-2866
▁engage	-2867
▁fundamental	-2868
▁i	-2869
▁70	-2870
ring	-2871
iation	-2872
▁policy	-2873
▁Imagine	-2874
ster	-2875
▁lands	-2876
▁concer	-2877
▁robots	-2878
▁slight	-2879
▁capital	-2880
▁neurons	-2881
▁anywhere	-2882
▁machines	-2883
▁expensive	-2884
▁impossible	-2885
▁Har	-2886
▁Ken	-2887
▁Your	-2888
▁Western	-2889
▁familiar	-2890
▁17	-2891
iven	-2892
▁effic	-2893
▁colleag	-2894
▁critical	-2895
▁Americans	-2896
▁lower	-2897
osphere	-2898
▁straight	-2899
iti	-2900
▁cry	-2901
▁lad	-2902
cules	-2903
▁swim	-2904
▁funny	-2905
▁types	-2906
▁larger	-2907
▁series	-2908
▁doctors	-2909
▁genetic	-2910
▁somewhere	-2911
oint	-2912
▁sou	-2913
▁thr	-2914
aries	-2915
▁cold	-2916
▁upon	-2917
▁demon	-2918
▁actual	-2919
▁famous	-2920
▁pieces	-2921
▁plastic	-2922
▁reflect	-2923
▁usually	-2924
▁patterns	-2925
▁recognize	-2926
fer	-2927
lex	-2928
cies	-2929
▁rand	-2930
▁glass	-2931
▁raise	-2932
▁talks	-2933
▁philos	-2934
▁respect	-2935
▁becoming	-2936
▁treatment	-2937
▁University	-2938
ana	-2939
ids	-2940
rael	-2941
▁hur	-2942
▁mir	-2943
ained	-2944
ellow	-2945
▁check	-2946
▁earth	-2947
▁square	-2948
▁explore	-2949
▁greater	-2950
▁seconds	-2951
▁perspective	-2952
unk	-2953
▁Char	-2954
▁roll	-2955
▁Those	-2956
ustrial	-2957
▁launch	-2958
▁citizens	-2959
imb	-2960
▁Me	-2961
▁Pl	-2962
time	-2963
▁magn	-2964
▁quot	-2965
▁rights	-2966
▁saving	-2967
▁somehow	-2968
▁strange	-2969
▁teaching	-2970
▁Ag	-2971
ises	-2972
▁fra	-2973
▁scr	-2974
urban	-2975
▁Like	-2976
▁rise	-2977
▁tiss	-2978
▁board	-2979
▁shark	-2980
▁manage	-2981
▁willing	-2982
▁effective	-2983
▁molecules	-2984
ees	-2985
egr	-2986
amic	-2987
back	-2988
▁tur	-2989
▁jump	-2990
▁legs	-2991
▁site	-2992
vision	-2993
▁beauty	-2994
▁random	-2995
▁spirit	-2996
▁smaller	-2997
▁demonstr	-2998
▁financial	-2999
▁complicated	-3000
▁198	-3001
▁trib	-3002
uments	-3003
▁female	-3004
▁shared	-3005
▁version	-3006
▁written	-3007
▁painting	-3008
apes	-3009
iced	-3010
▁gas	-3011
▁sus	-3012
▁Iran	-3013
▁port	-3014
▁prep	-3015
▁store	-3016
▁respond	-3017
▁security	-3018
ortunately	-3019
▁increasing	-3020
uf	-3021
▁cat	-3022
▁kil	-3023
▁mal	-3024
epend	-3025
ounds	-3026
▁heav	-3027
▁hous	-3028
▁page	-3029
▁uses	-3030
▁Somet	-3031
▁innov	-3032
▁optim	-3033
▁throw	-3034
▁discover	-3035
▁standing	-3036
bb	-3037
ently	-3038
▁costs	-3039
▁genes	-3040
▁associ	-3041
▁babies	-3042
▁decades	-3043
▁healthy	-3044
▁increase	-3045
▁organizations	-3046
ulf	-3047
uss	-3048
▁Bl	-3049
▁Tr	-3050
rest	-3051
▁ang	-3052
iling	-3053
iring	-3054
▁drop	-3055
▁star	-3056
▁trick	-3057
▁Israel	-3058
▁levels	-3059
▁achieve	-3060
▁express	-3061
▁website	-3062
▁bacteria	-3063
▁humanity	-3064
▁connection	-3065
▁organization	-3066
imp	-3067
▁Sp	-3068
▁ran	-3069
▁sym	-3070
aging	-3071
erman	-3072
▁corru	-3073
itation	-3074
▁distribut	-3075
▁Afghanistan	-3076
▁essentially	-3077
ha	-3078
prene	-3079
▁bread	-3080
▁older	-3081
reprene	-3082
▁beings	-3083
▁please	-3084
▁dangerous	-3085
ball	-3086
lebr	-3087
acity	-3088
▁pros	-3089
▁forth	-3090
▁electr	-3091
▁speech	-3092
▁practice	-3093
▁Two	-3094
▁eth	-3095
▁desp	-3096
▁final	-3097
▁remind	-3098
atically	-3099
▁throughout	-3100
▁engineering	-3101
▁immediately	-3102
aff	-3103
aly	-3104
aign	-3105
▁Mus	-3106
▁alg	-3107
thern	-3108
▁comfort	-3109
▁surgery	-3110
▁creativity	-3111
▁remarkable	-3112
▁electricity	-3113
ray	-3114
ugh	-3115
ping	-3116
▁fit	-3117
▁pen	-3118
ables	-3119
▁cust	-3120
▁belief	-3121
▁mobile	-3122
▁biology	-3123
▁fantastic	-3124
▁et	-3125
▁card	-3126
▁architecture	-3127
▁environmental	-3128
▁dro	-3129
▁coff	-3130
▁hole	-3131
▁park	-3132
▁nation	-3133
▁police	-3134
▁evolved	-3135
▁mention	-3136
▁standard	-3137
▁television	-3138
▁21	-3139
nter	-3140
▁His	-3141
▁dad	-3142
itude	-3143
ulner	-3144
▁Face	-3145
▁From	-3146
▁hero	-3147
▁chair	-3148
▁diagn	-3149
▁match	-3150
▁urban	-3151
▁honest	-3152
▁Another	-3153
▁clearly	-3154
▁earlier	-3155
▁following	-3156
▁interview	-3157
▁production	-3158
pro	-3159
orrow	-3160
▁phen	-3161
▁cover	-3162
▁offic	-3163
▁walked	-3164
ologists	-3165
▁address	-3166
▁services	-3167
▁challenges	-3168
▁international	-3169
▁Ab	-3170
sequ	-3171
word	-3172
▁Par	-3173
▁sal	-3174
▁apply	-3175
▁price	-3176
▁trade	-3177
▁celebr	-3178
▁waiting	-3179
son	-3180
▁Dr	-3181
itor	-3182
▁Col	-3183
▁pan	-3184
▁veh	-3185
▁sequ	-3186
▁vict	-3187
▁oppos	-3188
ception	-3189
▁career	-3190
▁helped	-3191
▁unique	-3192
▁useful	-3193
▁private	-3194
▁military	-3195
▁condition	-3196
▁emotional	-3197
▁understood	-3198
igr	-3199
oty	-3200
bert	-3201
eral	-3202
▁nut	-3203
▁race	-3204
▁enjoy	-3205
▁massive	-3206
▁popular	-3207
▁entreprene	-3208
▁performance	-3209
resh	-3210
▁mix	-3211
▁web	-3212
attle	-3213
ement	-3214
iding	-3215
istry	-3216
▁City	-3217
though	-3218
▁autom	-3219
▁email	-3220
▁shock	-3221
▁stars	-3222
▁whose	-3223
imately	-3224
▁coffee	-3225
▁sexual	-3226
▁summer	-3227
▁himself	-3228
▁surround	-3229
▁intelligence	-3230
raq	-3231
yle	-3232
▁sky	-3233
▁task	-3234
▁shift	-3235
▁spect	-3236
▁histor	-3237
▁spaces	-3238
▁choices	-3239
▁prevent	-3240
▁phenomen	-3241
▁classroom	-3242
▁therefore	-3243
▁experiments	-3244
▁neighborhood	-3245
cut	-3246
board	-3247
ashion	-3248
▁block	-3249
▁medicine	-3250
▁slightly	-3251
▁speaking	-3252
af	-3253
rad	-3254
▁ir	-3255
rees	-3256
▁Per	-3257
arian	-3258
▁fold	-3259
cience	-3260
▁lines	-3261
▁weren	-3262
▁German	-3263
▁decide	-3264
▁multip	-3265
▁values	-3266
▁creates	-3267
aul	-3268
udd	-3269
anda	-3270
used	-3271
▁hus	-3272
▁Many	-3273
▁male	-3274
▁radio	-3275
▁worry	-3276
▁forget	-3277
▁vulner	-3278
▁central	-3279
▁physics	-3280
▁Ex	-3281
iate	-3282
uing	-3283
rench	-3284
▁Iraq	-3285
▁wood	-3286
▁yeah	-3287
▁Austr	-3288
▁gradu	-3289
▁photo	-3290
▁destro	-3291
▁insect	-3292
▁wealth	-3293
▁meeting	-3294
▁Facebook	-3295
▁direction	-3296
▁complexity	-3297
ID	-3298
ipt	-3299
owd	-3300
▁Sc	-3301
▁197	-3302
▁dog	-3303
▁hall	-3304
ission	-3305
▁dance	-3306
▁motiv	-3307
▁highly	-3308
▁lights	-3309
▁select	-3310
▁networks	-3311
▁$	-3312
imin	-3313
isms	-3314
ondon	-3315
▁focused	-3316
▁nuclear	-3317
▁purpose	-3318
▁daughter	-3319
▁instance	-3320
off	-3321
ceed	-3322
aling	-3323
icians	-3324
▁drink	-3325
▁London	-3326
▁eating	-3327
▁answers	-3328
▁campaign	-3329
▁cultural	-3330
▁invented	-3331
▁24	-3332
exic	-3333
oses	-3334
▁log	-3335
▁ahead	-3336
▁enorm	-3337
▁survive	-3338
▁profound	-3339
▁spending	-3340
▁transport	-3341
▁differences	-3342
▁temperature	-3343
la	-3344
ams	-3345
ibr	-3346
olve	-3347
▁ann	-3348
ening	-3349
order	-3350
▁Cong	-3351
▁boys	-3352
▁laws	-3353
▁tree	-3354
▁birds	-3355
▁party	-3356
▁slide	-3357
▁decade	-3358
▁integr	-3359
▁states	-3360
▁target	-3361
▁driving	-3362
▁streets	-3363
▁trouble	-3364
ste	-3365
▁Mc	-3366
▁oh	-3367
▁inj	-3368
ratic	-3369
▁shop	-3370
▁teen	-3371
▁dying	-3372
▁occur	-3373
▁worst	-3374
▁Middle	-3375
▁custom	-3376
lications	-3377
▁greatest	-3378
iot	-3379
ened	-3380
▁ord	-3381
▁sad	-3382
apped	-3383
ystem	-3384
▁Bill	-3385
▁cand	-3386
▁gent	-3387
▁term	-3388
atives	-3389
▁Mexic	-3390
▁adapt	-3391
▁analy	-3392
▁catch	-3393
▁range	-3394
▁brings	-3395
▁shares	-3396
▁artists	-3397
▁various	-3398
▁inspired	-3399
the	-3400
adem	-3401
cope	-3402
oper	-3403
orge	-3404
raid	-3405
▁etc	-3406
antic	-3407
▁husb	-3408
▁shot	-3409
▁trem	-3410
▁instr	-3411
▁breast	-3412
▁causes	-3413
▁diseases	-3414
▁identity	-3415
ancy	-3416
cell	-3417
▁500	-3418
▁symb	-3419
▁town	-3420
▁afraid	-3421
▁terrible	-3422
mic	-3423
uct	-3424
iles	-3425
▁Dan	-3426
▁mut	-3427
▁ver	-3428
▁wis	-3429
orith	-3430
▁Cent	-3431
▁Mich	-3432
▁base	-3433
▁dimens	-3434
▁resist	-3435
▁noticed	-3436
▁document	-3437
▁communicate	-3438
ya	-3439
gth	-3440
▁Mr	-3441
ried	-3442
▁Was	-3443
▁fat	-3444
▁weap	-3445
rength	-3446
▁Think	-3447
▁frame	-3448
▁laugh	-3449
▁consequ	-3450
▁directly	-3451
▁published	-3452
▁scientist	-3453
ax	-3454
hib	-3455
key	-3456
orry	-3457
wise	-3458
▁Con	-3459
iforn	-3460
▁Have	-3461
▁Take	-3462
▁dram	-3463
▁fing	-3464
▁loss	-3465
▁paid	-3466
▁rule	-3467
▁vari	-3468
▁vast	-3469
thetic	-3470
▁Indian	-3471
▁active	-3472
▁Instead	-3473
▁Californ	-3474
▁algorith	-3475
▁capacity	-3476
▁mathemat	-3477
▁sustainable	-3478
na	-3479
ett	-3480
▁Sm	-3481
▁ing	-3482
▁blog	-3483
▁gala	-3484
▁floor	-3485
▁twice	-3486
▁flying	-3487
▁knowing	-3488
▁missing	-3489
▁traffic	-3490
▁strength	-3491
▁experiences	-3492
ze	-3493
alia	-3494
ille	-3495
load	-3496
▁commer	-3497
▁journal	-3498
▁relative	-3499
▁leadership	-3500
edd	-3501
▁ut	-3502
edia	-3503
engu	-3504
▁Aud	-3505
▁atm	-3506
itted	-3507
▁closer	-3508
▁compon	-3509
▁mostly	-3510
▁supply	-3511
▁stopped	-3512
▁independ	-3513
▁possibly	-3514
▁California	-3515
▁institutions	-3516
arm	-3517
zil	-3518
▁Ne	-3519
▁Ro	-3520
▁iP	-3521
▁aid	-3522
▁tax	-3523
▁doub	-3524
▁join	-3525
▁zero	-3526
▁basis	-3527
▁below	-3528
▁displ	-3529
ructure	-3530
▁gentle	-3531
▁deliver	-3532
▁devices	-3533
▁emotion	-3534
▁members	-3535
ios	-3536
idden	-3537
phone	-3538
▁tens	-3539
▁broad	-3540
▁rough	-3541
▁Brazil	-3542
▁autism	-3543
▁foreign	-3544
▁controll	-3545
▁colleagues	-3546
▁conference	-3547
ox	-3548
IDS	-3549
empt	-3550
izes	-3551
▁Will	-3552
▁lack	-3553
▁reve	-3554
▁wheel	-3555
▁forces	-3556
▁photos	-3557
▁reduce	-3558
▁moments	-3559
▁molecule	-3560
▁philosoph	-3561
▁opportunities	-3562
SA	-3563
now	-3564
rom	-3565
▁dyn	-3566
▁pig	-3567
anced	-3568
▁beat	-3569
▁airpl	-3570
▁novel	-3571
▁tissue	-3572
▁capture	-3573
▁electron	-3574
▁produced	-3575
▁corruption	-3576
▁communication	-3577
fl	-3578
▁Ha	-3579
▁ban	-3580
itter	-3581
▁note	-3582
▁Chris	-3583
▁Would	-3584
▁avoid	-3585
▁feels	-3586
▁Second	-3587
▁played	-3588
▁switch	-3589
▁hearing	-3590
▁helping	-3591
▁sharing	-3592
▁bringing	-3593
gy	-3594
▁Jo	-3595
▁Ob	-3596
athy	-3597
▁Cam	-3598
ufact	-3599
▁Russ	-3600
▁fort	-3601
▁hang	-3602
▁agree	-3603
▁brand	-3604
▁crowd	-3605
▁pengu	-3606
▁passed	-3607
▁fashion	-3608
▁infrast	-3609
▁mission	-3610
▁original	-3611
▁programs	-3612
atr	-3613
▁En	-3614
▁Gu	-3615
▁Te	-3616
iage	-3617
iber	-3618
▁Did	-3619
▁Nor	-3620
▁fro	-3621
▁gun	-3622
▁joy	-3623
othes	-3624
stein	-3625
▁poet	-3626
ording	-3627
ricult	-3628
▁nearly	-3629
▁volunt	-3630
ervation	-3631
▁attract	-3632
▁opposite	-3633
▁unc	-3634
▁AIDS	-3635
▁rare	-3636
▁scan	-3637
▁seed	-3638
▁stem	-3639
▁accur	-3640
▁faces	-3641
▁liber	-3642
▁addition	-3643
▁studying	-3644
▁significant	-3645
sc	-3646
▁amb	-3647
▁org	-3648
▁puzz	-3649
▁Again	-3650
▁visit	-3651
▁oxygen	-3652
▁degrees	-3653
▁husband	-3654
▁insight	-3655
▁National	-3656
▁emotions	-3657
▁religion	-3658
▁structures	-3659
▁consciousness	-3660
▁relationships	-3661
ada	-3662
osh	-3663
ches	-3664
vant	-3665
▁den	-3666
▁appl	-3667
▁forg	-3668
▁fuel	-3669
▁recon	-3670
▁therap	-3671
▁manufact	-3672
▁importantly	-3673
ils	-3674
tle	-3675
▁reb	-3676
▁tom	-3677
▁hack	-3678
icking	-3679
▁Great	-3680
▁anyway	-3681
▁bought	-3682
▁correct	-3683
▁forever	-3684
▁password	-3685
▁necessary	-3686
▁commercial	-3687
osqu	-3688
▁Fin	-3689
ander	-3690
▁fully	-3691
▁lucky	-3692
▁surve	-3693
▁advant	-3694
▁tremend	-3695
▁Actually	-3696
▁benefits	-3697
▁atmosphere	-3698
ky	-3699
▁1.	-3700
ears	-3701
▁Hey	-3702
▁cru	-3703
▁vote	-3704
elling	-3705
▁mouth	-3706
▁total	-3707
artment	-3708
▁broken	-3709
▁consid	-3710
▁easily	-3711
▁wisdom	-3712
▁failure	-3713
▁require	-3714
▁although	-3715
▁entirely	-3716
▁differently	-3717
lim	-3718
oun	-3719
aced	-3720
aker	-3721
hand	-3722
wide	-3723
▁Paul	-3724
▁cogn	-3725
▁hair	-3726
▁meas	-3727
▁reco	-3728
▁wide	-3729
▁accom	-3730
▁magaz	-3731
▁French	-3732
▁lesson	-3733
▁museum	-3734
▁restaur	-3735
▁argument	-3736
▁background	-3737
▁imagination	-3738
aria	-3739
vest	-3740
▁196	-3741
▁hom	-3742
▁vot	-3743
icles	-3744
▁Mars	-3745
▁heat	-3746
▁brill	-3747
▁parad	-3748
osystem	-3749
▁colors	-3750
▁corner	-3751
▁events	-3752
▁British	-3753
▁ancient	-3754
▁turning	-3755
▁enormous	-3756
▁majority	-3757
▁industrial	-3758
irt	-3759
ager	-3760
vere	-3761
▁Big	-3762
▁cla	-3763
▁Over	-3764
ifying	-3765
isible	-3766
▁cheap	-3767
▁chick	-3768
▁equal	-3769
▁batter	-3770
▁cooper	-3771
▁deeply	-3772
▁metaph	-3773
▁symbol	-3774
▁window	-3775
ifically	-3776
▁However	-3777
▁leading	-3778
▁matters	-3779
▁Audience	-3780
▁statistics	-3781
zen	-3782
icon	-3783
reet	-3784
ysis	-3785
▁300	-3786
▁hyp	-3787
agers	-3788
apers	-3789
based	-3790
itely	-3791
▁held	-3792
▁sick	-3793
▁grown	-3794
▁newsp	-3795
▁rapid	-3796
▁demand	-3797
▁stream	-3798
▁unlike	-3799
▁describe	-3800
▁mountain	-3801
▁ecosystem	-3802
▁responsible	-3803
dro	-3804
edic	-3805
roud	-3806
▁ble	-3807
▁pet	-3808
house	-3809
▁burn	-3810
▁core	-3811
aining	-3812
▁crime	-3813
▁agricult	-3814
▁diversity	-3815
▁landscape	-3816
▁Ed	-3817
lock	-3818
roll	-3819
ured	-3820
vity	-3821
ulous	-3822
▁bone	-3823
▁mamm	-3824
pected	-3825
▁lunch	-3826
▁shoot	-3827
▁grandm	-3828
ulations	-3829
▁workers	-3830
▁received	-3831
▁suffering	-3832
▁fascinating	-3833
▁governments	-3834
▁infrastructure	-3835
li	-3836
gal	-3837
win	-3838
▁Mo	-3839
▁amp	-3840
▁bud	-3841
▁fab	-3842
▁tor	-3843
▁none	-3844
▁sport	-3845
▁dreams	-3846
▁expand	-3847
▁flight	-3848
▁contact	-3849
▁accident	-3850
DP	-3851
equ	-3852
▁Pal	-3853
▁San	-3854
▁bul	-3855
verse	-3856
water	-3857
▁Once	-3858
▁bees	-3859
▁mort	-3860
▁mosqu	-3861
▁offer	-3862
▁users	-3863
ography	-3864
▁breath	-3865
▁gotten	-3866
▁physic	-3867
▁reward	-3868
▁benefit	-3869
▁extreme	-3870
▁Japanese	-3871
▁fighting	-3872
▁Sometimes	-3873
▁interaction	-3874
▁researchers	-3875
hy	-3876
mon	-3877
reg	-3878
mark	-3879
reci	-3880
▁Gra	-3881
▁bag	-3882
▁mid	-3883
▁repe	-3884
▁bound	-3885
▁embra	-3886
▁shoes	-3887
▁altern	-3888
▁sector	-3889
▁destroy	-3890
▁effects	-3891
▁illness	-3892
▁justice	-3893
▁regular	-3894
▁shouldn	-3895
▁pressure	-3896
▁strategy	-3897
▁responsibility	-3898
ked	-3899
thes	-3900
▁nor	-3901
erson	-3902
ipped	-3903
▁gift	-3904
▁pair	-3905
▁ship	-3906
▁spot	-3907
▁trip	-3908
encies	-3909
itable	-3910
orders	-3911
▁legal	-3912
▁proud	-3913
▁tough	-3914
▁10,000	-3915
▁adults	-3916
▁remote	-3917
▁seemed	-3918
▁balance	-3919
▁despite	-3920
▁illustr	-3921
▁compared	-3922
▁Everybody	-3923
▁creatures	-3924
kn	-3925
ica	-3926
▁Em	-3927
term	-3928
urch	-3929
▁Des	-3930
▁Min	-3931
▁egg	-3932
▁gay	-3933
cript	-3934
▁appe	-3935
▁exer	-3936
▁rout	-3937
▁wear	-3938
▁climb	-3939
▁attempt	-3940
▁protein	-3941
▁European	-3942
▁childhood	-3943
▁definition	-3944
▁400	-3945
▁GDP	-3946
▁sug	-3947
▁Swed	-3948
▁hate	-3949
▁host	-3950
ellect	-3951
▁epide	-3952
▁habit	-3953
▁prior	-3954
▁quant	-3955
▁dinner	-3956
▁voices	-3957
▁perfectly	-3958
▁president	-3959
▁collective	-3960
ford	-3961
▁tum	-3962
esome	-3963
iable	-3964
▁Asia	-3965
▁Good	-3966
▁domin	-3967
▁faith	-3968
▁veget	-3969
▁meters	-3970
▁raised	-3971
▁element	-3972
▁farmers	-3973
▁managed	-3974
▁married	-3975
▁volunte	-3976
▁contribut	-3977
▁Je	-3978
▁Res	-3979
▁alt	-3980
▁tal	-3981
▁More	-3982
▁tast	-3983
▁equip	-3984
▁giant	-3985
▁paint	-3986
▁stuck	-3987
▁truck	-3988
▁Thanks	-3989
▁convin	-3990
▁thinks	-3991
▁transm	-3992
▁brother	-3993
▁drawing	-3994
▁related	-3995
▁replace	-3996
▁typical	-3997
▁biological	-3998
▁tremendous	-3999
oo	-4000
rupt	-4001
▁gold	-4002
▁plat	-4003
▁calls	-4004
▁cycle	-4005
connect	-4006
▁aspect	-4007
▁easier	-4008
▁failed	-4009
▁yellow	-4010
▁concent	-4011
▁insects	-4012
▁distance	-4013
▁negative	-4014
▁previous	-4015
▁cognitive	-4016
▁intellect	-4017
▁possibility	-4018
my	-4019
val	-4020
▁Art	-4021
▁See	-4022
arter	-4023
uries	-4024
▁diet	-4025
▁wond	-4026
ctions	-4027
▁frequ	-4028
▁quote	-4029
▁simpl	-4030
▁corpor	-4031
▁genome	-4032
▁versus	-4033
▁artific	-4034
▁experts	-4035
▁figured	-4036
▁limited	-4037
ification	-4038
▁advantage	-4039
▁brilliant	-4040
▁discovery	-4041
▁efficient	-4042
▁invisible	-4043
hab	-4044
pped	-4045
uild	-4046
▁Gen	-4047
▁Her	-4048
▁und	-4049
▁intu	-4050
▁antib	-4051
▁enter	-4052
▁helps	-4053
▁leads	-4054
▁round	-4055
▁weird	-4056
▁School	-4057
▁desire	-4058
▁double	-4059
▁fairly	-4060
▁hidden	-4061
▁letter	-4062
▁notion	-4063
▁install	-4064
▁watched	-4065
▁billions	-4066
▁equipment	-4067
▁essential	-4068
▁languages	-4069
▁investment	-4070
ey	-4071
▁Co	-4072
aped	-4073
cket	-4074
gypt	-4075
rict	-4076
▁due	-4077
▁fol	-4078
▁tun	-4079
▁Does	-4080
▁bomb	-4081
▁cred	-4082
▁shel	-4083
▁shut	-4084
▁stim	-4085
▁unex	-4086
ancing	-4087
▁Green	-4088
▁fresh	-4089
▁names	-4090
▁subst	-4091
▁terror	-4092
▁concentr	-4093
▁everyday	-4094
▁feedback	-4095
▁partners	-4096
imensional	-4097
▁necessarily	-4098
IT	-4099
inc	-4100
ason	-4101
hold	-4102
ulpt	-4103
atell	-4104
▁empt	-4105
▁hell	-4106
▁opin	-4107
▁tour	-4108
apping	-4109
ipping	-4110
▁categ	-4111
▁chann	-4112
▁daily	-4113
▁facts	-4114
▁motor	-4115
▁river	-4116
▁Mexico	-4117
▁bridge	-4118
▁expert	-4119
▁sculpt	-4120
▁holding	-4121
▁studied	-4122
▁succeed	-4123
▁creation	-4124
▁influence	-4125
ato	-4126
ius	-4127
otic	-4128
▁rat	-4129
oking	-4130
owing	-4131
▁edge	-4132
▁wire	-4133
▁1,000	-4134
▁homes	-4135
▁moves	-4136
▁circum	-4137
▁dollar	-4138
▁houses	-4139
▁incent	-4140
▁leader	-4141
▁neuros	-4142
▁leaving	-4143
▁mothers	-4144
▁planets	-4145
▁designer	-4146
▁planning	-4147
▁businesses	-4148
gn	-4149
cles	-4150
known	-4151
ortex	-4152
throp	-4153
▁Very	-4154
▁disc	-4155
▁Egypt	-4156
▁argue	-4157
▁commit	-4158
▁opened	-4159
▁keeping	-4160
▁investig	-4161
▁struggle	-4162
▁surprise	-4163
dimensional	-4164
▁depression	-4165
cop	-4166
▁1,	-4167
apse	-4168
▁150	-4169
▁Sun	-4170
itute	-4171
▁meat	-4172
▁mill	-4173
▁tick	-4174
▁Could	-4175
▁click	-4176
▁mouse	-4177
entally	-4178
▁damage	-4179
▁satell	-4180
▁sister	-4181
▁appreci	-4182
▁compare	-4183
▁invited	-4184
▁precise	-4185
▁radical	-4186
▁wearing	-4187
▁followed	-4188
▁platform	-4189
▁Australia	-4190
▁entertain	-4191
▁electrical	-4192
▁increasingly	-4193
au	-4194
me	-4195
lin	-4196
omy	-4197
isco	-4198
mber	-4199
▁Ben	-4200
▁Ein	-4201
print	-4202
▁iron	-4203
▁liked	-4204
▁surge	-4205
▁begins	-4206
▁losing	-4207
▁capable	-4208
▁highest	-4209
▁vaccine	-4210
▁metaphor	-4211
▁university	-4212
ara	-4213
pid	-4214
▁ur	-4215
▁gar	-4216
▁glo	-4217
▁odd	-4218
anted	-4219
essed	-4220
▁harm	-4221
▁nutr	-4222
▁master	-4223
▁origin	-4224
▁Twitter	-4225
▁Washing	-4226
▁markets	-4227
▁princip	-4228
▁prototy	-4229
▁Einstein	-4230
▁magazine	-4231
▁resource	-4232
▁separate	-4233
▁survival	-4234
▁surprised	-4235
▁universal	-4236
▁constantly	-4237
▁comfortable	-4238
▁experienced	-4239
ij	-4240
ami	-4241
▁El	-4242
▁Fl	-4243
▁Su	-4244
▁Yet	-4245
▁Phil	-4246
▁moon	-4247
acters	-4248
▁rural	-4249
▁sorry	-4250
ibilities	-4251
▁finished	-4252
▁characters	-4253
▁competition	-4254
ads	-4255
anes	-4256
ocol	-4257
▁bee	-4258
illed	-4259
▁Bang	-4260
▁Rich	-4261
▁grad	-4262
▁horr	-4263
forest	-4264
idents	-4265
▁hydro	-4266
▁sugar	-4267
issions	-4268
vention	-4269
▁George	-4270
▁battle	-4271
▁gather	-4272
▁counter	-4273
▁killing	-4274
▁weapons	-4275
▁airplane	-4276
▁believed	-4277
▁suggests	-4278
▁described	-4279
▁worldwide	-4280
▁Washington	-4281
▁associated	-4282
▁dimensions	-4283
▁phenomenon	-4284
▁ultimately	-4285
▁professional	-4286
cked	-4287
enty	-4288
▁Tom	-4289
▁dry	-4290
▁gap	-4291
▁tit	-4292
▁ton	-4293
celer	-4294
inist	-4295
▁Each	-4296
▁gard	-4297
▁intr	-4298
▁king	-4299
▁purs	-4300
▁valu	-4301
▁Kenya	-4302
▁noise	-4303
▁advert	-4304
▁bright	-4305
▁charge	-4306
▁degree	-4307
▁shapes	-4308
▁letters	-4309
▁elements	-4310
▁concerned	-4311
▁expression	-4312
rum	-4313
uls	-4314
odes	-4315
▁App	-4316
▁Bar	-4317
▁Rob	-4318
ublic	-4319
▁agre	-4320
▁dial	-4321
▁disp	-4322
ession	-4323
▁perce	-4324
▁astron	-4325
▁belong	-4326
▁harder	-4327
▁organs	-4328
▁England	-4329
▁courage	-4330
▁virtual	-4331
▁identify	-4332
▁normally	-4333
▁perception	-4334
ls	-4335
ael	-4336
aked	-4337
bble	-4338
▁band	-4339
▁gene	-4340
▁puts	-4341
▁root	-4342
▁holes	-4343
▁maint	-4344
▁Canada	-4345
▁fellow	-4346
▁finish	-4347
▁Charles	-4348
▁factory	-4349
▁multiple	-4350
▁economics	-4351
▁artificial	-4352
isf	-4353
olves	-4354
ribute	-4355
ushing	-4356
▁exhib	-4357
▁indic	-4358
iration	-4359
▁leaves	-4360
▁pollut	-4361
▁slowly	-4362
▁transp	-4363
lication	-4364
▁trained	-4365
▁soldiers	-4366
▁operating	-4367
▁generations	-4368
▁construction	-4369
▁transformation	-4370
do	-4371
oot	-4372
rete	-4373
uous	-4374
▁Rep	-4375
▁adop	-4376
▁arms	-4377
▁dots	-4378
▁hasn	-4379
▁user	-4380
atures	-4381
ulated	-4382
▁Franc	-4383
▁coast	-4384
▁academ	-4385
▁awesome	-4386
▁cartoon	-4387
▁curious	-4388
▁details	-4389
▁diction	-4390
▁marriage	-4391
▁valuable	-4392
▁according	-4393
▁engineers	-4394
▁unexpected	-4395
▁ax	-4396
berg	-4397
cipl	-4398
iors	-4399
ties	-4400
▁Dar	-4401
▁MIT	-4402
▁Tur	-4403
▁pow	-4404
▁rom	-4405
▁tow	-4406
iques	-4407
▁Talk	-4408
▁fell	-4409
▁tail	-4410
▁whom	-4411
▁Niger	-4412
▁aging	-4413
▁heads	-4414
▁caused	-4415
▁desert	-4416
▁facing	-4417
▁inform	-4418
▁safety	-4419
▁kilomet	-4420
▁organic	-4421
▁station	-4422
▁theater	-4423
▁analysis	-4424
▁ordinary	-4425
▁currently	-4426
▁considered	-4427
▁passionate	-4428
▁distribution	-4429
fit	-4430
cend	-4431
wood	-4432
▁hun	-4433
gment	-4434
itals	-4435
▁date	-4436
▁exch	-4437
▁grid	-4438
▁Women	-4439
▁grade	-4440
▁grain	-4441
▁lifet	-4442
▁quiet	-4443
▁scene	-4444
▁sympt	-4445
▁toile	-4446
▁interp	-4447
▁paying	-4448
ographic	-4449
▁extract	-4450
▁testing	-4451
▁official	-4452
▁property	-4453
▁chemistry	-4454
▁employees	-4455
▁religious	-4456
▁wondering	-4457
ula	-4458
onym	-4459
zing	-4460
▁Lad	-4461
▁cow	-4462
▁Thom	-4463
▁lawy	-4464
▁recy	-4465
ildren	-4466
▁While	-4467
▁smile	-4468
▁steps	-4469
▁reform	-4470
▁equival	-4471
▁musical	-4472
▁weather	-4473
▁seriously	-4474
▁collection	-4475
▁consequences	-4476
▁unfortunately	-4477
ns	-4478
uh	-4479
mas	-4480
olf	-4481
ume	-4482
▁Ac	-4483
osis	-4484
uits	-4485
▁Bas	-4486
▁Sch	-4487
▁Wik	-4488
▁lat	-4489
▁pal	-4490
asion	-4491
neath	-4492
right	-4493
▁Mark	-4494
▁asks	-4495
▁hurt	-4496
▁impl	-4497
itness	-4498
lation	-4499
▁awful	-4500
▁chart	-4501
▁empty	-4502
▁sight	-4503
▁walls	-4504
▁Street	-4505
▁attach	-4506
▁closed	-4507
▁refuge	-4508
▁stupid	-4509
▁acceler	-4510
▁article	-4511
▁cutting	-4512
▁mosquit	-4513
▁partner	-4514
▁cultures	-4515
▁election	-4516
▁feelings	-4517
▁pleasure	-4518
▁sentence	-4519
▁interface	-4520
▁otherwise	-4521
▁civilization	-4522
PS	-4523
met	-4524
▁Rem	-4525
▁cos	-4526
▁era	-4527
▁2008	-4528
▁hadn	-4529
▁Their	-4530
▁Times	-4531
▁limit	-4532
▁pages	-4533
▁plane	-4534
▁polic	-4535
▁bubble	-4536
▁caught	-4537
▁filled	-4538
▁frustr	-4539
▁phones	-4540
▁pounds	-4541
▁unless	-4542
▁videos	-4543
▁malaria	-4544
▁setting	-4545
▁treated	-4546
▁penguins	-4547
▁Everything	-4548
▁photographs	-4549
agr	-4550
bur	-4551
mar	-4552
▁La	-4553
raft	-4554
▁Bro	-4555
▁Jul	-4556
▁ves	-4557
▁liqu	-4558
▁peak	-4559
▁repl	-4560
▁shad	-4561
▁soil	-4562
▁vibr	-4563
making	-4564
▁horse	-4565
▁humor	-4566
▁sweet	-4567
▁sharks	-4568
▁signal	-4569
▁Michael	-4570
▁appropr	-4571
▁vehicle	-4572
▁clinical	-4573
▁tomorrow	-4574
▁whenever	-4575
▁construct	-4576
▁convinced	-4577
▁specifically	-4578
RI	-4579
ps	-4580
irm	-4581
▁45	-4582
▁CO	-4583
ests	-4584
▁fal	-4585
▁pil	-4586
▁King	-4587
▁crop	-4588
▁migr	-4589
▁tall	-4590
ension	-4591
▁chain	-4592
▁concl	-4593
▁fewer	-4594
▁inner	-4595
▁negot	-4596
▁pregn	-4597
akistan	-4598
▁ingred	-4599
▁empathy	-4600
▁opening	-4601
▁sending	-4602
▁expected	-4603
▁professor	-4604
▁entrepreneurs	-4605
30	-4606
▁Ah	-4607
care	-4608
iend	-4609
life	-4610
vard	-4611
▁Ple	-4612
▁Pol	-4613
▁fle	-4614
▁nan	-4615
ented	-4616
lands	-4617
▁Come	-4618
▁myth	-4619
▁nerv	-4620
▁pure	-4621
▁rein	-4622
▁resc	-4623
▁warm	-4624
ensity	-4625
father	-4626
urally	-4627
▁Three	-4628
▁solid	-4629
▁spoke	-4630
▁teles	-4631
▁deeper	-4632
▁fourth	-4633
▁pollen	-4634
▁review	-4635
▁arrived	-4636
▁display	-4637
▁affected	-4638
▁engineer	-4639
▁reaction	-4640
▁released	-4641
▁encourage	-4642
▁practical	-4643
▁democratic	-4644
▁equivalent	-4645
▁underneath	-4646
▁politicians	-4647
za	-4648
cil	-4649
min	-4650
set	-4651
uary	-4652
▁GPS	-4653
▁Hum	-4654
▁Jan	-4655
▁Val	-4656
▁cup	-4657
▁eld	-4658
▁fed	-4659
▁san	-4660
ength	-4661
▁enem	-4662
▁myst	-4663
▁ride	-4664
▁scen	-4665
illing	-4666
urance	-4667
▁Frank	-4668
▁honor	-4669
▁saved	-4670
▁stood	-4671
▁driver	-4672
▁micros	-4673
▁prefer	-4674
▁vessel	-4675
▁sources	-4676
▁launched	-4677
▁location	-4678
▁thoughts	-4679
▁hopefully	-4680
▁molecular	-4681
▁algorithms	-4682
▁importance	-4683
▁techniques	-4684
▁grandmother	-4685
ux	-4686
add	-4687
▁ju	-4688
semb	-4689
▁Sim	-4690
▁nur	-4691
▁Adam	-4692
▁abst	-4693
▁cere	-4694
▁dogs	-4695
▁remo	-4696
▁weak	-4697
angers	-4698
ateful	-4699
▁brief	-4700
▁colon	-4701
oration	-4702
▁Thomas	-4703
▁blocks	-4704
▁debate	-4705
▁define	-4706
▁gender	-4707
▁liquid	-4708
▁battery	-4709
▁conduct	-4710
▁players	-4711
▁promise	-4712
▁singing	-4713
▁warming	-4714
▁Pakistan	-4715
▁absolute	-4716
▁circumst	-4717
▁gentlemen	-4718
▁organized	-4719
▁psychology	-4720
▁relatively	-4721
rel	-4722
urd	-4723
ener	-4724
▁Dem	-4725
▁Web	-4726
▁phr	-4727
▁spl	-4728
ciple	-4729
ograp	-4730
▁libr	-4731
▁mush	-4732
▁soph	-4733
▁grass	-4734
▁manip	-4735
▁staff	-4736
itarian	-4737
▁Please	-4738
▁circle	-4739
▁forced	-4740
▁picked	-4741
▁Harvard	-4742
▁covered	-4743
▁nervous	-4744
▁worried	-4745
▁birthday	-4746
▁contract	-4747
▁printing	-4748
▁rational	-4749
▁emissions	-4750
▁hospitals	-4751
▁invention	-4752
▁processes	-4753
20	-4754
rs	-4755
ham	-4756
zed	-4757
▁35	-4758
down	-4759
▁Ant	-4760
lines	-4761
▁arts	-4762
▁dish	-4763
▁gain	-4764
▁lapt	-4765
▁nurs	-4766
▁qual	-4767
lement	-4768
▁2,000	-4769
▁false	-4770
▁goods	-4771
▁metal	-4772
▁prove	-4773
▁stock	-4774
▁uncle	-4775
▁analog	-4776
▁buying	-4777
▁severe	-4778
▁nations	-4779
▁victims	-4780
▁emerging	-4781
▁lifetime	-4782
▁requires	-4783
▁transition	-4784
▁connections	-4785
▁consumption	-4786
gra	-4787
▁Fe	-4788
▁NA	-4789
▁PM	-4790
▁god	-4791
ament	-4792
craft	-4793
organ	-4794
▁Ange	-4795
▁Life	-4796
▁YouT	-4797
▁bear	-4798
▁evil	-4799
▁lect	-4800
▁poem	-4801
▁folks	-4802
▁notes	-4803
▁shame	-4804
▁sides	-4805
▁improv	-4806
▁status	-4807
▁toward	-4808
▁calling	-4809
▁dynamic	-4810
▁epidemic	-4811
▁stronger	-4812
▁designers	-4813
▁marketing	-4814
▁narrative	-4815
▁organisms	-4816
▁principle	-4817
▁vulnerable	-4818
▁independent	-4819
azz	-4820
▁Qu	-4821
acle	-4822
irty	-4823
olds	-4824
▁anx	-4825
▁ath	-4826
▁lic	-4827
▁lie	-4828
▁uns	-4829
▁van	-4830
being	-4831
force	-4832
▁Kore	-4833
▁acqu	-4834
▁bath	-4835
▁roof	-4836
anging	-4837
terday	-4838
▁heavy	-4839
▁ideal	-4840
▁risks	-4841
▁topic	-4842
▁budget	-4843
▁island	-4844
inations	-4845
▁Germany	-4846
▁YouTube	-4847
▁engaged	-4848
▁release	-4849
▁signals	-4850
▁infected	-4851
▁mistakes	-4852
▁mortality	-4853
▁newspaper	-4854
▁technical	-4855
▁convention	-4856
▁foundation	-4857
▁intelligent	-4858
▁intellectual	-4859
aj	-4860
ta	-4861
lph	-4862
ugg	-4863
▁Gr	-4864
aren	-4865
atin	-4866
oons	-4867
▁sam	-4868
▁Mart	-4869
▁bits	-4870
▁copy	-4871
▁ille	-4872
▁lady	-4873
▁scar	-4874
▁unus	-4875
athers	-4876
▁claim	-4877
▁dolph	-4878
▁genet	-4879
▁minim	-4880
▁north	-4881
▁Center	-4882
▁extend	-4883
▁motion	-4884
▁trials	-4885
▁contain	-4886
▁fiction	-4887
▁lessons	-4888
▁Congress	-4889
▁memories	-4890
▁restaurant	-4891
▁effectively	-4892
hi	-4893
amb	-4894
itz	-4895
abol	-4896
amin	-4897
▁iPh	-4898
▁rig	-4899
▁tox	-4900
umber	-4901
▁Last	-4902
▁coal	-4903
▁flat	-4904
▁init	-4905
▁isol	-4906
▁jail	-4907
▁lies	-4908
▁nose	-4909
enture	-4910
olving	-4911
▁Since	-4912
▁rates	-4913
▁serve	-4914
▁bottle	-4915
▁exists	-4916
▁height	-4917
▁patent	-4918
▁remain	-4919
▁satisf	-4920
▁roughly	-4921
▁silence	-4922
▁relevant	-4923
▁spectrum	-4924
▁definitely	-4925
▁management	-4926
▁possibilities	-4927
ov	-4928
lly	-4929
enced	-4930
lying	-4931
▁2000	-4932
▁2010	-4933
▁horm	-4934
▁Haiti	-4935
▁Islam	-4936
▁James	-4937
▁eleph	-4938
▁error	-4939
▁layer	-4940
▁reven	-4941
▁south	-4942
▁candid	-4943
▁flower	-4944
▁former	-4945
▁medium	-4946
▁microb	-4947
▁poetry	-4948
▁actions	-4949
▁chicken	-4950
▁falling	-4951
▁transpl	-4952
▁dramatic	-4953
▁exercise	-4954
▁carefully	-4955
▁producing	-4956
▁sophistic	-4957
▁introduced	-4958
▁kilometers	-4959
▁personally	-4960
▁principles	-4961
▁protection	-4962
▁alternative	-4963
▁grandfather	-4964
alt	-4965
bre	-4966
▁CE	-4967
▁II	-4968
aled	-4969
▁bow	-4970
▁nav	-4971
acles	-4972
erves	-4973
estic	-4974
▁Park	-4975
▁bill	-4976
▁cave	-4977
▁seat	-4978
▁sees	-4979
▁occup	-4980
ulating	-4981
▁Robert	-4982
▁cortex	-4983
▁credit	-4984
▁forgot	-4985
▁fortun	-4986
▁lifest	-4987
▁Richard	-4988
▁amounts	-4989
▁depends	-4990
▁explains	-4991
▁meaningful	-4992
▁profession	-4993
ym	-4994
alu	-4995
ela	-4996
emp	-4997
▁zo	-4998
cast	-4999
cont	-5000
gets	-5001
icip	-5002
▁Ber	-5003
▁Mon	-5004
▁ens	-5005
▁pip	-5006
▁shr	-5007
▁ske	-5008
▁ten	-5009
point	-5010
▁Bank	-5011
▁Gree	-5012
▁anti	-5013
▁inev	-5014
▁wars	-5015
lessly	-5016
▁added	-5017
▁estab	-5018
▁plans	-5019
▁Sweden	-5020
▁scared	-5021
▁studio	-5022
▁existing	-5023
▁generate	-5024
▁mushroom	-5025
▁proteins	-5026
▁designing	-5027
▁disappear	-5028
▁framework	-5029
▁interests	-5030
▁interpret	-5031
▁mentioned	-5032
▁particles	-5033
▁components	-5034
▁circumstances	-5035
ih	-5036
ait	-5037
iel	-5038
oly	-5039
cest	-5040
▁cha	-5041
▁mak	-5042
▁row	-5043
sters	-5044
▁Pres	-5045
▁bike	-5046
▁item	-5047
▁wine	-5048
porary	-5049
▁chose	-5050
▁doubt	-5051
▁ignor	-5052
▁inequ	-5053
▁multi	-5054
▁poore	-5055
▁shall	-5056
▁sites	-5057
▁advice	-5058
▁fields	-5059
▁fright	-5060
▁100,000	-5061
▁dealing	-5062
▁defined	-5063
▁opinion	-5064
▁rapidly	-5065
▁reprodu	-5066
▁grateful	-5067
▁internal	-5068
▁sequence	-5069
▁subjects	-5070
▁tracking	-5071
▁introduce	-5072
▁typically	-5073
▁mathematics	-5074
▁participate	-5075
▁environments	-5076
ago	-5077
▁75	-5078
heim	-5079
hyth	-5080
tech	-5081
whel	-5082
▁Int	-5083
▁Jew	-5084
▁Mal	-5085
▁Wow	-5086
▁hem	-5087
▁mel	-5088
▁rit	-5089
entic	-5090
▁Four	-5091
▁boat	-5092
▁ends	-5093
▁unit	-5094
▁aston	-5095
▁goals	-5096
▁polio	-5097
▁repair	-5098
▁senses	-5099
▁worlds	-5100
▁Britain	-5101
▁gravity	-5102
▁solving	-5103
▁unusual	-5104
▁variety	-5105
▁accurate	-5106
▁constant	-5107
▁hydrogen	-5108
▁awareness	-5109
▁innovative	-5110
▁instrument	-5111
▁percentage	-5112
▁fundamentally	-5113
▁Ma	-5114
nded	-5115
oken	-5116
ront	-5117
▁Bab	-5118
▁Day	-5119
▁Los	-5120
▁Sam	-5121
abled	-5122
eline	-5123
iency	-5124
retch	-5125
▁refr	-5126
▁ring	-5127
▁runs	-5128
▁tons	-5129
profit	-5130
ternal	-5131
▁estim	-5132
▁label	-5133
▁ridic	-5134
▁ancest	-5135
▁factor	-5136
▁galaxy	-5137
▁length	-5138
▁movies	-5139
▁player	-5140
▁sample	-5141
volution	-5142
▁applied	-5143
▁channel	-5144
▁consist	-5145
▁earthqu	-5146
▁forests	-5147
▁intense	-5148
▁operate	-5149
▁primary	-5150
▁privile	-5151
▁reverse	-5152
▁witness	-5153
▁abstract	-5154
▁disaster	-5155
▁exchange	-5156
▁messages	-5157
▁overwhel	-5158
▁swimming	-5159
▁wondered	-5160
▁authority	-5161
▁economies	-5162
▁mountains	-5163
ri	-5164
cal	-5165
ita	-5166
▁2.	-5167
rets	-5168
▁pun	-5169
▁rot	-5170
aters	-5171
nding	-5172
▁Dere	-5173
▁barr	-5174
▁hide	-5175
▁lung	-5176
▁pump	-5177
▁spin	-5178
▁stro	-5179
▁suit	-5180
▁atoms	-5181
▁auton	-5182
▁clock	-5183
▁films	-5184
▁navig	-5185
▁teams	-5186
▁tumor	-5187
▁critic	-5188
▁explan	-5189
▁hoping	-5190
▁joined	-5191
▁member	-5192
▁option	-5193
▁combine	-5194
▁encoura	-5195
▁funding	-5196
▁regions	-5197
▁selling	-5198
▁carrying	-5199
▁concrete	-5200
▁confront	-5201
▁graduate	-5202
▁passwords	-5203
▁confidence	-5204
▁economists	-5205
▁philosophy	-5206
▁manufacturing	-5207
dr	-5208
bel	-5209
gin	-5210
hol	-5211
lom	-5212
uce	-5213
uff	-5214
ums	-5215
▁99	-5216
▁Us	-5217
iled	-5218
▁Cop	-5219
▁dot	-5220
akers	-5221
alled	-5222
iture	-5223
▁Alex	-5224
▁fake	-5225
▁pray	-5226
▁soul	-5227
friend	-5228
source	-5229
▁3,000	-5230
▁Paris	-5231
▁camer	-5232
▁teeth	-5233
osition	-5234
▁Darwin	-5235
▁compar	-5236
▁oceans	-5237
▁regard	-5238
▁ritual	-5239
▁sports	-5240
▁string	-5241
▁accompl	-5242
▁factors	-5243
▁however	-5244
▁sunlight	-5245
▁animation	-5246
▁centuries	-5247
▁chemicals	-5248
▁increased	-5249
▁traveling	-5250
▁discussion	-5251
▁collaboration	-5252
edy	-5253
ola	-5254
osa	-5255
pet	-5256
▁Kh	-5257
abet	-5258
▁194	-5259
▁tap	-5260
▁voc	-5261
▁Amaz	-5262
▁Girl	-5263
▁Only	-5264
▁mere	-5265
▁sacr	-5266
▁wake	-5267
ifting	-5268
▁Smith	-5269
▁obser	-5270
▁chocol	-5271
▁facial	-5272
▁solved	-5273
▁winter	-5274
▁cooking	-5275
▁harvest	-5276
▁antibiot	-5277
▁contrast	-5278
▁vaccines	-5279
▁movements	-5280
▁operation	-5281
▁yesterday	-5282
▁behavioral	-5283
▁productive	-5284
▁resistance	-5285
▁combination	-5286
▁conversations	-5287
▁transportation	-5288
ye	-5289
err	-5290
igm	-5291
nam	-5292
pic	-5293
que	-5294
bors	-5295
mers	-5296
▁Eve	-5297
▁Fre	-5298
▁ack	-5299
▁adj	-5300
▁las	-5301
opher	-5302
▁Jack	-5303
▁NASA	-5304
▁bold	-5305
▁hung	-5306
▁lift	-5307
▁milk	-5308
▁wave	-5309
itchen	-5310
▁Obama	-5311
▁cyber	-5312
▁resil	-5313
▁skill	-5314
▁steel	-5315
▁thick	-5316
▁Russia	-5317
▁assign	-5318
▁clouds	-5319
▁iPhone	-5320
ographer	-5321
▁include	-5322
▁collapse	-5323
▁consumer	-5324
▁prepared	-5325
▁behaviors	-5326
▁computing	-5327
▁challenging	-5328
▁destruction	-5329
▁applications	-5330
nda	-5331
och	-5332
▁23	-5333
Talk	-5334
erge	-5335
roph	-5336
▁Gab	-5337
▁Sat	-5338
▁dip	-5339
▁pin	-5340
▁2007	-5341
▁Gulf	-5342
▁busy	-5343
▁eggs	-5344
▁elev	-5345
▁flex	-5346
▁hunt	-5347
▁tank	-5348
arrass	-5349
asters	-5350
▁Other	-5351
▁bombs	-5352
▁flash	-5353
▁frank	-5354
▁horiz	-5355
▁input	-5356
▁ought	-5357
▁Muslim	-5358
▁acting	-5359
▁mirror	-5360
▁offers	-5361
▁proced	-5362
▁writer	-5363
▁Perhaps	-5364
▁TEDTalk	-5365
▁centers	-5366
▁comment	-5367
abilities	-5368
▁convince	-5369
▁instinct	-5370
▁President	-5371
▁generally	-5372
▁lifestyle	-5373
▁mechanism	-5374
▁represents	-5375
▁agriculture	-5376
▁0	-5377
aret	-5378
foot	-5379
what	-5380
▁Eas	-5381
▁hip	-5382
icing	-5383
▁Also	-5384
▁Stan	-5385
▁bare	-5386
▁cure	-5387
▁desk	-5388
▁loud	-5389
▁maps	-5390
▁orch	-5391
▁plus	-5392
▁snow	-5393
imeter	-5394
iminal	-5395
▁Democ	-5396
▁Found	-5397
▁Steve	-5398
▁Wikip	-5399
▁cents	-5400
▁fears	-5401
▁Martin	-5402
▁Nobody	-5403
▁clever	-5404
▁driven	-5405
▁owners	-5406
▁stands	-5407
▁stayed	-5408
chnology	-5409
▁Islamic	-5410
▁cameras	-5411
▁circuit	-5412
▁illegal	-5413
▁metabol	-5414
▁mistake	-5415
▁parking	-5416
▁samples	-5417
▁therapy	-5418
▁hypothes	-5419
▁Francisco	-5420
▁Institute	-5421
▁constrain	-5422
▁radiation	-5423
▁department	-5424
▁literature	-5425
▁situations	-5426
▁inspiration	-5427
▁transformed	-5428
▁entrepreneur	-5429
▁sophisticated	-5430
▁sustainability	-5431
ef	-5432
ald	-5433
cel	-5434
oli	-5435
▁Gh	-5436
▁US	-5437
adic	-5438
elly	-5439
ifth	-5440
oice	-5441
▁Dep	-5442
▁bes	-5443
▁tea	-5444
aving	-5445
chair	-5446
pping	-5447
stand	-5448
▁Give	-5449
▁Pole	-5450
▁flag	-5451
▁hits	-5452
▁obst	-5453
▁pian	-5454
▁prem	-5455
▁Count	-5456
▁Latin	-5457
▁boxes	-5458
▁signs	-5459
▁walks	-5460
▁anonym	-5461
▁devast	-5462
▁fabric	-5463
▁hunger	-5464
▁ladies	-5465
▁pulled	-5466
▁reject	-5467
▁storyt	-5468
▁thanks	-5469
▁borders	-5470
▁options	-5471
▁apparent	-5472
▁somewhat	-5473
▁Wikipedia	-5474
▁determine	-5475
▁embarrass	-5476
▁footprint	-5477
▁identical	-5478
▁neighbors	-5479
▁satellite	-5480
▁technique	-5481
▁controlled	-5482
▁earthquake	-5483
▁laboratory	-5484
▁potentially	-5485
PA	-5486
box	-5487
▁22	-5488
resp	-5489
xide	-5490
▁hel	-5491
▁mad	-5492
▁sen	-5493
earch	-5494
esity	-5495
▁1990	-5496
▁dict	-5497
▁sets	-5498
▁suic	-5499
stream	-5500
▁Derek	-5501
▁broke	-5502
▁dedic	-5503
▁globe	-5504
▁memor	-5505
▁plays	-5506
▁shell	-5507
▁stere	-5508
▁tests	-5509
▁whist	-5510
▁Museum	-5511
▁arrest	-5512
▁garden	-5513
▁immune	-5514
▁puzzle	-5515
▁survey	-5516
▁burning	-5517
▁closely	-5518
▁dancing	-5519
▁embrace	-5520
▁equally	-5521
▁flowers	-5522
▁tonight	-5523
▁unknown	-5524
connected	-5525
▁Everyone	-5526
▁advanced	-5527
▁allowing	-5528
▁horrible	-5529
▁instruct	-5530
▁ultimate	-5531
▁vehicles	-5532
▁collected	-5533
▁existence	-5534
▁spiritual	-5535
▁physically	-5536
▁processing	-5537
▁properties	-5538
ua	-5539
iat	-5540
nic	-5541
▁Es	-5542
▁Gl	-5543
▁Ke	-5544
▁Po	-5545
asks	-5546
ctic	-5547
keep	-5548
ocin	-5549
over	-5550
ubes	-5551
xies	-5552
▁Jer	-5553
▁Nob	-5554
▁wel	-5555
attan	-5556
▁1970	-5557
▁Comm	-5558
▁Part	-5559
▁acts	-5560
▁diss	-5561
▁furn	-5562
▁joke	-5563
▁loop	-5564
▁outc	-5565
▁thin	-5566
▁wash	-5567
▁admit	-5568
▁beach	-5569
▁compl	-5570
▁dense	-5571
▁guide	-5572
▁keeps	-5573
▁males	-5574
▁paral	-5575
▁phase	-5576
▁pitch	-5577
▁acknow	-5578
▁desper	-5579
▁formed	-5580
▁mainly	-5581
onscious	-5582
▁January	-5583
▁Nigeria	-5584
▁electro	-5585
▁overall	-5586
▁painful	-5587
▁distinct	-5588
▁romantic	-5589
▁symptoms	-5590
▁arguments	-5591
▁chocolate	-5592
▁implement	-5593
▁spreading	-5594
▁activities	-5595
▁collecting	-5596
▁transplant	-5597
▁appropriate	-5598
▁interactive	-5599
▁implications	-5600
ae	-5601
▁ru	-5602
appy	-5603
hour	-5604
lete	-5605
oned	-5606
viol	-5607
▁Jon	-5608
▁Red	-5609
▁exe	-5610
arant	-5611
ended	-5612
tocin	-5613
▁2009	-5614
▁Sept	-5615
▁Sing	-5616
▁Step	-5617
▁bicy	-5618
▁fert	-5619
▁foss	-5620
▁pool	-5621
▁tape	-5622
▁Nobel	-5623
▁State	-5624
▁knock	-5625
▁roads	-5626
▁uncom	-5627
▁waves	-5628
▁Before	-5629
▁Design	-5630
▁Health	-5631
▁divide	-5632
▁handle	-5633
▁pocket	-5634
▁Science	-5635
▁advance	-5636
▁attacks	-5637
▁convert	-5638
▁discipl	-5639
▁empower	-5640
▁kitchen	-5641
▁viruses	-5642
▁illusion	-5643
▁pregnant	-5644
▁Christmas	-5645
▁September	-5646
▁conflicts	-5647
▁continent	-5648
▁establish	-5649
▁measuring	-5650
▁sensitive	-5651
▁conclusion	-5652
▁controvers	-5653
▁healthcare	-5654
▁underwater	-5655
▁wheelchair	-5656
▁entertainment	-5657
def	-5658
ino	-5659
rat	-5660
rog	-5661
spe	-5662
anta	-5663
oded	-5664
uses	-5665
▁Tal	-5666
▁sem	-5667
going	-5668
oding	-5669
orter	-5670
scale	-5671
usive	-5672
▁Manh	-5673
▁Mont	-5674
▁beet	-5675
▁brib	-5676
▁golf	-5677
▁ment	-5678
▁pill	-5679
▁rush	-5680
▁trig	-5681
heimer	-5682
▁About	-5683
▁upper	-5684
▁Palest	-5685
▁border	-5686
▁contem	-5687
▁perman	-5688
▁suffer	-5689
▁classes	-5690
▁command	-5691
▁designs	-5692
▁dropped	-5693
▁feature	-5694
▁largely	-5695
▁obesity	-5696
▁reached	-5697
▁records	-5698
▁regener	-5699
▁brothers	-5700
▁galaxies	-5701
▁required	-5702
▁Manhattan	-5703
▁explained	-5704
▁pollution	-5705
▁prototype	-5706
▁providing	-5707
▁Revolution	-5708
▁incentives	-5709
▁surrounded	-5710
▁advertising	-5711
▁astonishing	-5712
wr	-5713
den	-5714
nel	-5715
van	-5716
vas	-5717
iety	-5718
olly	-5719
▁Pat	-5720
▁Sil	-5721
▁mim	-5722
vable	-5723
▁Star	-5724
▁gest	-5725
isters	-5726
▁Carol	-5727
▁angry	-5728
▁digit	-5729
▁judge	-5730
▁liver	-5731
▁remem	-5732
▁storm	-5733
▁Anyway	-5734
▁assume	-5735
▁boring	-5736
▁heroes	-5737
▁phrase	-5738
▁regret	-5739
▁sphere	-5740
▁toilet	-5741
▁causing	-5742
▁frankly	-5743
▁pushing	-5744
▁younger	-5745
▁presence	-5746
▁transfer	-5747
▁Basically	-5748
▁authentic	-5749
▁insurance	-5750
▁uncertain	-5751
▁greenhouse	-5752
▁mechanical	-5753
▁conventional	-5754
▁mathematical	-5755
tw	-5756
aks	-5757
iam	-5758
oft	-5759
uel	-5760
▁Bo	-5761
▁Cr	-5762
aves	-5763
cers	-5764
▁Alz	-5765
▁Atl	-5766
▁Get	-5767
▁Les	-5768
▁Tor	-5769
▁asp	-5770
▁fan	-5771
▁rub	-5772
aming	-5773
inate	-5774
iters	-5775
▁Stud	-5776
▁bias	-5777
▁cord	-5778
▁cous	-5779
▁decl	-5780
▁ears	-5781
▁kick	-5782
▁lets	-5783
▁dress	-5784
▁elder	-5785
▁faced	-5786
▁lying	-5787
▁refer	-5788
▁sheep	-5789
▁songs	-5790
▁tribe	-5791
▁aftern	-5792
▁athlet	-5793
▁deaths	-5794
▁latest	-5795
▁nurses	-5796
▁papers	-5797
▁rating	-5798
▁remove	-5799
▁season	-5800
▁Project	-5801
▁breathe	-5802
▁careful	-5803
▁collaps	-5804
▁finance	-5805
▁fingers	-5806
▁housing	-5807
▁methods	-5808
▁mystery	-5809
▁outcome	-5810
▁visible	-5811
▁agencies	-5812
▁download	-5813
▁Alzheimer	-5814
▁apartment	-5815
▁continued	-5816
▁diagnosed	-5817
▁naturally	-5818
▁religions	-5819
▁strangers	-5820
▁antibiotics	-5821
▁educational	-5822
bl	-5823
mit	-5824
xim	-5825
▁36	-5826
cred	-5827
gent	-5828
gged	-5829
ingu	-5830
ogue	-5831
rary	-5832
tery	-5833
▁Dis	-5834
▁irr	-5835
▁ped	-5836
▁raw	-5837
eding	-5838
enger	-5839
icted	-5840
pring	-5841
think	-5842
▁Five	-5843
▁capt	-5844
▁cast	-5845
▁grab	-5846
▁tack	-5847
▁wise	-5848
iosity	-5849
▁blank	-5850
▁likes	-5851
▁plate	-5852
▁taste	-5853
▁adoles	-5854
▁attend	-5855
▁hearts	-5856
▁inject	-5857
▁spoken	-5858
▁struck	-5859
▁whales	-5860
▁Eastern	-5861
▁classic	-5862
▁clothes	-5863
▁offered	-5864
▁rebuild	-5865
▁sensors	-5866
▁violent	-5867
▁academic	-5868
▁maintain	-5869
▁outcomes	-5870
▁oxytocin	-5871
▁wherever	-5872
▁customers	-5873
▁efficiency	-5874
▁engagement	-5875
▁fascinated	-5876
▁interactions	-5877
lym	-5878
lyn	-5879
ota	-5880
▁Rw	-5881
case	-5882
illy	-5883
ione	-5884
rors	-5885
rous	-5886
▁CEO	-5887
▁Haw	-5888
▁MRI	-5889
▁Mor	-5890
▁Sec	-5891
edded	-5892
hythm	-5893
ician	-5894
while	-5895
▁Eric	-5896
▁Love	-5897
▁Mand	-5898
▁gray	-5899
ending	-5900
owered	-5901
usions	-5902
▁cards	-5903
▁coral	-5904
▁datab	-5905
▁pharm	-5906
▁prost	-5907
▁shake	-5908
▁theme	-5909
▁Amazon	-5910
▁button	-5911
▁diplom	-5912
▁drives	-5913
▁elimin	-5914
▁portra	-5915
▁retire	-5916
▁shadow	-5917
▁signed	-5918
▁spring	-5919
▁Finally	-5920
▁figures	-5921
▁section	-5922
▁whereas	-5923
▁Republic	-5924
▁concepts	-5925
▁criminal	-5926
▁obsessed	-5927
▁reaching	-5928
▁recorded	-5929
▁refriger	-5930
▁component	-5931
▁functions	-5932
▁furniture	-5933
▁selection	-5934
▁teenagers	-5935
▁contribute	-5936
▁dictionary	-5937
▁vulnerability	-5938
ka	-5939
▁27	-5940
emen	-5941
fish	-5942
iggs	-5943
olar	-5944
yard	-5945
▁600	-5946
▁Joe	-5947
▁Mom	-5948
▁ben	-5949
▁gut	-5950
▁twe	-5951
mates	-5952
opath	-5953
oster	-5954
oston	-5955
stage	-5956
▁2005	-5957
▁Next	-5958
▁chip	-5959
▁knee	-5960
▁surf	-5961
arency	-5962
▁Higgs	-5963
▁Peter	-5964
▁chrom	-5965
▁hotel	-5966
▁tight	-5967
▁trend	-5968
forward	-5969
iveness	-5970
▁behave	-5971
▁church	-5972
▁deploy	-5973
▁explos	-5974
▁frozen	-5975
▁limits	-5976
▁relate	-5977
▁Angeles	-5978
▁conserv	-5979
▁existed	-5980
▁guarant	-5981
▁happier	-5982
▁library	-5983
▁poorest	-5984
▁scratch	-5985
▁windows	-5986
▁equation	-5987
▁traveled	-5988
▁afternoon	-5989
▁ignorance	-5990
▁intuitive	-5991
▁precisely	-5992
▁translate	-5993
▁Foundation	-5994
▁commitment	-5995
▁historical	-5996
▁volunteers	-5997
▁application	-5998
▁distributed	-5999
▁ingredients	-6000
▁evolutionary	-6001
▁technological	-6002
ano	-6003
car	-6004
pes	-6005
uity	-6006
▁Ros	-6007
▁Unf	-6008
acing	-6009
icago	-6010
inder	-6011
isher	-6012
itors	-6013
under	-6014
▁Hans	-6015
▁Wall	-6016
▁army	-6017
▁bran	-6018
▁club	-6019
▁clus	-6020
▁cosm	-6021
▁leap	-6022
▁neut	-6023
▁pour	-6024
▁tube	-6025
▁Antar	-6026
▁Gates	-6027
▁crash	-6028
▁curve	-6029
▁depth	-6030
▁evalu	-6031
▁fixed	-6032
▁infin	-6033
▁initi	-6034
▁polar	-6035
▁recom	-6036
▁recyc	-6037
▁seeds	-6038
▁split	-6039
▁wings	-6040
▁yield	-6041
eration	-6042
▁Boston	-6043
▁France	-6044
▁interf	-6045
▁plenty	-6046
▁tribes	-6047
▁volume	-6048
aneously	-6049
▁Chicago	-6050
▁airport	-6051
▁cheaper	-6052
▁chromos	-6053
▁disturb	-6054
▁evening	-6055
▁license	-6056
▁nowhere	-6057
▁pretend	-6058
▁receive	-6059
▁robotic	-6060
▁stretch	-6061
▁touched	-6062
▁achieved	-6063
▁captured	-6064
▁combined	-6065
▁district	-6066
▁embedded	-6067
ologically	-6068
▁practices	-6069
▁statement	-6070
▁appreciate	-6071
▁inequality	-6072
▁journalist	-6073
▁populations	-6074
▁dramatically	-6075
GO	-6076
bal	-6077
ban	-6078
ahar	-6079
city	-6080
hips	-6081
iday	-6082
mble	-6083
oman	-6084
orus	-6085
wich	-6086
▁Bur	-6087
▁Mic	-6088
▁Pre	-6089
▁aim	-6090
▁ate	-6091
athan	-6092
night	-6093
phere	-6094
▁cock	-6095
▁frag	-6096
▁load	-6097
▁vert	-6098
yright	-6099
▁Apple	-6100
▁Human	-6101
▁Trans	-6102
▁Union	-6103
▁absor	-6104
▁angle	-6105
▁colum	-6106
▁dozen	-6107
▁enemy	-6108
▁paras	-6109
▁rooms	-6110
▁smoke	-6111
▁stack	-6112
▁whale	-6113
erences	-6114
inction	-6115
▁Arabic	-6116
▁Really	-6117
▁extent	-6118
▁fossil	-6119
▁hungry	-6120
▁needle	-6121
▁surely	-6122
▁tested	-6123
▁worker	-6124
cription	-6125
▁herself	-6126
▁proport	-6127
▁speaker	-6128
▁wanting	-6129
▁disorder	-6130
▁occurred	-6131
▁trillion	-6132
▁destroyed	-6133
▁elections	-6134
▁increases	-6135
▁accessible	-6136
▁optimistic	-6137
▁photography	-6138
▁successfully	-6139
▁Unfortunately	-6140
ata	-6141
ida	-6142
ndr	-6143
new	-6144
vey	-6145
▁Op	-6146
▁ug	-6147
anny	-6148
▁250	-6149
▁Jim	-6150
▁Pac	-6151
level	-6152
opard	-6153
▁1960	-6154
▁High	-6155
▁List	-6156
▁Port	-6157
▁Tony	-6158
▁ages	-6159
▁chap	-6160
herent	-6161
ietnam	-6162
ivered	-6163
orking	-6164
▁Prize	-6165
▁aband	-6166
▁advoc	-6167
▁flies	-6168
▁spell	-6169
▁toler	-6170
▁assist	-6171
▁eradic	-6172
▁execut	-6173
▁invite	-6174
▁laptop	-6175
▁oldest	-6176
▁anticip	-6177
▁appears	-6178
▁aspects	-6179
▁charity	-6180
▁extinct	-6181
▁imaging	-6182
▁raising	-6183
▁remains	-6184
▁removed	-6185
▁surgeon	-6186
▁engaging	-6187
▁imagined	-6188
▁meetings	-6189
▁occasion	-6190
▁stations	-6191
▁villages	-6192
▁household	-6193
▁intention	-6194
▁protected	-6195
▁reference	-6196
▁standards	-6197
▁conservation	-6198
▁expectations	-6199
bed	-6200
etr	-6201
ias	-6202
▁Hi	-6203
airs	-6204
ogen	-6205
▁Law	-6206
▁Spe	-6207
▁gon	-6208
▁mer	-6209
cence	-6210
eness	-6211
gging	-6212
ingly	-6213
maker	-6214
▁1980	-6215
▁Gand	-6216
▁Olym	-6217
▁bull	-6218
▁icon	-6219
▁subs	-6220
▁zoom	-6221
osaurs	-6222
ounced	-6223
▁Charl	-6224
▁abund	-6225
▁banks	-6226
▁champ	-6227
▁march	-6228
▁piano	-6229
▁proof	-6230
▁proto	-6231
▁score	-6232
▁tries	-6233
▁weigh	-6234
▁evolve	-6235
▁phosph	-6236
▁profit	-6237
▁silent	-6238
▁spinal	-6239
▁Vietnam	-6240
▁bicycle	-6241
▁consume	-6242
▁decline	-6243
▁feeding	-6244
▁instant	-6245
▁prosper	-6246
▁quarter	-6247
▁breaking	-6248
▁director	-6249
▁mosquito	-6250
▁unlikely	-6251
▁celebrate	-6252
▁exploration	-6253
▁instruments	-6254
eal	-6255
org	-6256
war	-6257
▁26	-6258
▁ub	-6259
aint	-6260
atto	-6261
itan	-6262
lims	-6263
osen	-6264
▁10-	-6265
▁Hen	-6266
▁Ice	-6267
▁Mad	-6268
▁NGO	-6269
class	-6270
▁Budd	-6271
▁Cons	-6272
▁Hell	-6273
▁ants	-6274
▁biom	-6275
▁blow	-6276
▁clip	-6277
▁gall	-6278
▁kiss	-6279
▁pace	-6280
▁rely	-6281
▁stri	-6282
Americ	-6283
▁Bible	-6284
▁Congo	-6285
▁Gabby	-6286
▁court	-6287
▁decre	-6288
▁fifth	-6289
▁imper	-6290
▁laser	-6291
▁scary	-6292
▁agenda	-6293
▁chosen	-6294
▁crying	-6295
▁genius	-6296
▁lovely	-6297
▁missed	-6298
▁reveal	-6299
▁rising	-6300
▁conclud	-6301
▁divided	-6302
▁efforts	-6303
▁impress	-6304
▁savings	-6305
▁suicide	-6306
▁Research	-6307
▁appeared	-6308
▁morality	-6309
▁provided	-6310
▁speakers	-6311
▁breathing	-6312
▁classical	-6313
▁delivered	-6314
▁describes	-6315
▁paintings	-6316
▁presented	-6317
▁telescope	-6318
▁demonstrate	-6319
▁95	-6320
east	-6321
onds	-6322
oran	-6323
▁Air	-6324
▁Jes	-6325
▁Six	-6326
alian	-6327
otion	-6328
ounce	-6329
worth	-6330
▁Long	-6331
▁Turn	-6332
▁carr	-6333
▁debt	-6334
arents	-6335
called	-6336
inistr	-6337
unning	-6338
▁Peace	-6339
▁accum	-6340
▁bones	-6341
▁chest	-6342
▁finds	-6343
▁flour	-6344
▁fluid	-6345
▁hemis	-6346
▁hyper	-6347
▁orbit	-6348
▁sheet	-6349
▁utter	-6350
▁Rwanda	-6351
▁Valley	-6352
▁agreed	-6353
▁finger	-6354
▁ignore	-6355
▁injury	-6356
▁intent	-6357
▁intrig	-6358
▁myster	-6359
▁placed	-6360
▁scenar	-6361
▁thrown	-6362
▁Nothing	-6363
▁amongst	-6364
▁beliefs	-6365
▁comprom	-6366
▁concert	-6367
▁females	-6368
▁orchest	-6369
▁origami	-6370
▁privacy	-6371
▁cartoons	-6372
▁measured	-6373
▁properly	-6374
▁recovery	-6375
▁sandwich	-6376
▁exploring	-6377
▁instantly	-6378
▁connecting	-6379
▁performing	-6380
▁rainforest	-6381
▁neuroscience	-6382
▁participants	-6383
ras	-6384
▁Ox	-6385
▁id	-6386
ifts	-6387
lets	-6388
ooth	-6389
ulse	-6390
well	-6391
▁Cur	-6392
▁Del	-6393
▁Squ	-6394
▁Tes	-6395
▁Tra	-6396
▁sed	-6397
cohol	-6398
using	-6399
▁beer	-6400
▁cake	-6401
▁cens	-6402
▁fool	-6403
▁lens	-6404
▁mail	-6405
▁pupp	-6406
▁zone	-6407
licate	-6408
▁Brown	-6409
▁anger	-6410
▁coach	-6411
▁crack	-6412
▁drone	-6413
▁grows	-6414
▁pilot	-6415
▁pleas	-6416
▁reson	-6417
▁suppl	-6418
▁suspe	-6419
▁title	-6420
▁units	-6421
▁youth	-6422
iminals	-6423
through	-6424
▁Mother	-6425
▁combat	-6426
▁drones	-6427
▁halluc	-6428
▁rescue	-6429
▁robust	-6430
▁talent	-6431
▁anxiety	-6432
▁essence	-6433
▁failing	-6434
▁granted	-6435
▁imagery	-6436
▁neither	-6437
▁reconst	-6438
▁sensory	-6439
▁unclear	-6440
▁Remember	-6441
▁external	-6442
▁northern	-6443
▁consumers	-6444
▁corporate	-6445
▁curiosity	-6446
▁depending	-6447
▁generated	-6448
▁inspiring	-6449
▁musicians	-6450
▁sculpture	-6451
▁boundaries	-6452
▁functional	-6453
▁microscope	-6454
▁cooperation	-6455
▁explanation	-6456
▁institution	-6457
▁represented	-6458
▁presentation	-6459
▁surprisingly	-6460
ec	-6461
ga	-6462
wl	-6463
aci	-6464
agh	-6465
iac	-6466
ups	-6467
▁CA	-6468
▁MT	-6469
bits	-6470
gers	-6471
oked	-6472
rect	-6473
ulum	-6474
umin	-6475
utch	-6476
▁Det	-6477
▁Gal	-6478
▁Mah	-6479
▁Ten	-6480
▁hat	-6481
ckets	-6482
eared	-6483
flies	-6484
icher	-6485
inson	-6486
licit	-6487
power	-6488
▁1950	-6489
▁Time	-6490
▁axis	-6491
▁cats	-6492
▁dung	-6493
▁flew	-6494
▁glob	-6495
▁poly	-6496
▁quad	-6497
phones	-6498
▁adopt	-6499
▁apple	-6500
▁chaos	-6501
▁coord	-6502
▁drill	-6503
▁minor	-6504
▁miser	-6505
▁pione	-6506
▁recip	-6507
▁spark	-6508
▁vital	-6509
angible	-6510
▁50,000	-6511
▁Should	-6512
▁rocket	-6513
▁slides	-6514
▁sticks	-6515
▁Through	-6516
▁hackers	-6517
▁letting	-6518
▁restore	-6519
▁vessels	-6520
▁elephant	-6521
▁floating	-6522
▁involves	-6523
▁minister	-6524
▁paradigm	-6525
▁policies	-6526
▁returned	-6527
▁Something	-6528
▁committed	-6529
▁copyright	-6530
▁dinosaurs	-6531
▁affordable	-6532
▁motivation	-6533
▁struggling	-6534
▁recognition	-6535
▁neighborhoods	-6536
500	-6537
aze	-6538
des	-6539
nes	-6540
yan	-6541
ague	-6542
atar	-6543
conf	-6544
hear	-6545
wart	-6546
yrus	-6547
▁Bel	-6548
▁Bon	-6549
▁Med	-6550
▁Rio	-6551
▁bon	-6552
Sahar	-6553
belie	-6554
front	-6555
isons	-6556
itory	-6557
izoph	-6558
▁2004	-6559
▁Move	-6560
▁boss	-6561
▁coun	-6562
▁dign	-6563
▁firm	-6564
▁flip	-6565
▁seek	-6566
▁tent	-6567
▁till	-6568
▁ugly	-6569
ptions	-6570
▁actor	-6571
▁bears	-6572
▁crops	-6573
▁falls	-6574
▁foods	-6575
▁logic	-6576
▁sales	-6577
▁tasks	-6578
▁tatto	-6579
▁toxic	-6580
▁traum	-6581
Saharan	-6582
uration	-6583
▁Indeed	-6584
▁Nature	-6585
▁adjust	-6586
▁locked	-6587
▁richer	-6588
▁stable	-6589
▁stages	-6590
▁stroke	-6591
▁trends	-6592
▁Muslims	-6593
▁alcohol	-6594
▁anthrop	-6595
▁balloon	-6596
▁carried	-6597
▁corresp	-6598
▁crucial	-6599
▁lecture	-6600
▁prepare	-6601
▁synthes	-6602
▁baseball	-6603
▁contains	-6604
▁features	-6605
▁reported	-6606
▁depressed	-6607
▁separated	-6608
▁uncomfort	-6609
▁apparently	-6610
▁expectancy	-6611
▁protecting	-6612
▁recognized	-6613
▁researcher	-6614
▁ridiculous	-6615
▁personality	-6616
▁underground	-6617
▁automatically	-6618
▁characteristics	-6619
gl	-6620
mm	-6621
uk	-6622
arp	-6623
gic	-6624
▁65	-6625
▁Sa	-6626
▁Ty	-6627
ache	-6628
bles	-6629
quar	-6630
yram	-6631
▁Boy	-6632
▁pra	-6633
▁sle	-6634
▁spr	-6635
▁wip	-6636
adays	-6637
agger	-6638
bered	-6639
ifice	-6640
iform	-6641
state	-6642
▁2003	-6643
▁2006	-6644
▁Beij	-6645
▁Cont	-6646
▁June	-6647
▁TEDx	-6648
▁bubb	-6649
▁hook	-6650
▁nets	-6651
▁tied	-6652
abetes	-6653
bridge	-6654
ioxide	-6655
licity	-6656
▁Grand	-6657
▁Voice	-6658
▁cryst	-6659
▁holds	-6660
▁honey	-6661
▁plain	-6662
▁tears	-6663
▁trash	-6664
▁usual	-6665
▁yours	-6666
▁Island	-6667
▁barely	-6668
▁cheese	-6669
▁colony	-6670
▁ensure	-6671
▁linked	-6672
▁orange	-6673
▁paraly	-6674
▁defense	-6675
▁density	-6676
▁disrupt	-6677
▁distant	-6678
▁diverse	-6679
▁fathers	-6680
▁impacts	-6681
▁muscles	-6682
▁paralle	-6683
▁unbelie	-6684
▁dolphins	-6685
▁dominant	-6686
▁football	-6687
▁improved	-6688
▁organize	-6689
▁overcome	-6690
▁produces	-6691
▁schizoph	-6692
▁shopping	-6693
▁sleeping	-6694
▁textbook	-6695
▁continues	-6696
▁permanent	-6697
▁Department	-6698
▁afterwards	-6699
▁architects	-6700
▁directions	-6701
▁strategies	-6702
▁interacting	-6703
▁agricultural	-6704
▁transparency	-6705
▁uncomfortable	-6706
bru	-6707
hop	-6708
kin	-6709
ora	-6710
rol	-6711
fast	-6712
irds	-6713
▁195	-6714
▁Cor	-6715
▁Mil	-6716
▁Tas	-6717
▁bug	-6718
▁der	-6719
▁gro	-6720
aping	-6721
archy	-6722
capes	-6723
▁Gold	-6724
▁Play	-6725
▁chim	-6726
▁corn	-6727
▁dump	-6728
▁lamp	-6729
▁mile	-6730
▁perm	-6731
astics	-6732
sembly	-6733
▁Henry	-6734
▁Yemen	-6735
▁abuse	-6736
▁aside	-6737
▁craft	-6738
▁gonna	-6739
▁mixed	-6740
▁stone	-6741
century	-6742
▁20,000	-6743
▁Howard	-6744
▁Yorker	-6745
▁agency	-6746
▁capita	-6747
▁curric	-6748
▁enable	-6749
▁escape	-6750
▁filter	-6751
▁narrow	-6752
▁repeat	-6753
▁secure	-6754
▁subtle	-6755
▁delight	-6756
▁dioxide	-6757
▁entered	-6758
▁fishing	-6759
▁lawyers	-6760
▁printed	-6761
▁protest	-6762
▁suppose	-6763
▁visited	-6764
▁Stanford	-6765
▁astronom	-6766
▁attached	-6767
▁controls	-6768
▁creature	-6769
▁equality	-6770
▁estimate	-6771
▁homeless	-6772
▁lighting	-6773
▁musician	-6774
▁provides	-6775
▁stereoty	-6776
▁wireless	-6777
▁administr	-6778
▁calculate	-6779
▁emergency	-6780
▁protocell	-6781
▁searching	-6782
▁disappoint	-6783
▁electronic	-6784
▁explaining	-6785
▁controlling	-6786
▁improvement	-6787
▁predictions	-6788
▁International	-6789
▁psychological	-6790
che	-6791
▁Bi	-6792
▁na	-6793
ding	-6794
ihad	-6795
▁Bal	-6796
▁Hel	-6797
▁aes	-6798
▁cig	-6799
▁ink	-6800
▁toy	-6801
agram	-6802
allow	-6803
andem	-6804
orous	-6805
▁Moon	-6806
▁Sund	-6807
▁defe	-6808
▁diam	-6809
▁east	-6810
▁frog	-6811
▁jazz	-6812
▁mice	-6813
▁plot	-6814
▁prec	-6815
semble	-6816
▁5,000	-6817
▁House	-6818
▁Korea	-6819
▁Never	-6820
▁Third	-6821
▁brown	-6822
▁burst	-6823
▁dynam	-6824
▁explo	-6825
▁helic	-6826
▁legis	-6827
▁opens	-6828
▁purch	-6829
▁rehab	-6830
▁renew	-6831
▁stops	-6832
▁style	-6833
▁tempt	-6834
▁tired	-6835
▁veter	-6836
▁views	-6837
liament	-6838
unction	-6839
▁Micros	-6840
▁chairs	-6841
▁mining	-6842
▁neural	-6843
▁output	-6844
▁sensor	-6845
▁served	-6846
▁tricks	-6847
▁Pacific	-6848
▁elderly	-6849
▁painted	-6850
▁recover	-6851
▁globally	-6852
▁repeated	-6853
▁treating	-6854
▁colleague	-6855
▁encounter	-6856
▁virtually	-6857
▁identified	-6858
▁assumptions	-6859
▁electronics	-6860
▁uncertainty	-6861
▁productivity	-6862
▁demonstration	-6863
-1	-6864
enh	-6865
ses	-6866
sey	-6867
▁28	-6868
abin	-6869
ares	-6870
bage	-6871
enly	-6872
ette	-6873
gend	-6874
iang	-6875
iban	-6876
izza	-6877
lear	-6878
omic	-6879
part	-6880
▁Den	-6881
▁Lar	-6882
▁Mod	-6883
▁Sir	-6884
▁Ven	-6885
▁fet	-6886
▁gam	-6887
▁gre	-6888
▁ham	-6889
▁hol	-6890
ctica	-6891
iance	-6892
iated	-6893
itous	-6894
lings	-6895
omous	-6896
puter	-6897
▁Bush	-6898
▁boom	-6899
▁dism	-6900
▁dive	-6901
▁drag	-6902
▁emph	-6903
▁enth	-6904
▁laid	-6905
▁matr	-6906
▁meal	-6907
▁soup	-6908
▁Brian	-6909
▁Scott	-6910
▁Space	-6911
▁loves	-6912
▁persu	-6913
▁prime	-6914
▁therm	-6915
▁thumb	-6916
anthrop	-6917
attered	-6918
ogether	-6919
section	-6920
▁Arctic	-6921
▁Fellow	-6922
▁Number	-6923
▁Tasman	-6924
▁assets	-6925
▁defend	-6926
▁excell	-6927
▁farmer	-6928
▁rarely	-6929
▁recomm	-6930
▁stores	-6931
▁traged	-6932
▁trucks	-6933
▁victim	-6934
▁closing	-6935
▁drivers	-6936
▁helicop	-6937
▁quantum	-6938
▁reduced	-6939
▁staying	-6940
▁torture	-6941
▁Children	-6942
▁Minister	-6943
▁darkness	-6944
▁diabetes	-6945
▁drinking	-6946
▁shocking	-6947
▁strongly	-6948
▁Cambridge	-6949
▁accidents	-6950
▁highlight	-6951
▁nutrition	-6952
▁recording	-6953
▁Antarctica	-6954
▁hemisphere	-6955
▁inevitable	-6956
▁phosphorus	-6957
▁prosthetic	-6958
▁resilience	-6959
▁suggesting	-6960
▁vegetables	-6961
▁disappeared	-6962
▁manufacture	-6963
▁schizophren	-6964
▁translation	-6965
▁instructions	-6966
▁collaborative	-6967
ena	-6968
erd	-6969
ixt	-6970
omo	-6971
tes	-6972
uum	-6973
▁32	-6974
▁Ug	-6975
itud	-6976
onia	-6977
osal	-6978
panz	-6979
pass	-6980
ropy	-6981
xual	-6982
▁120	-6983
▁Aug	-6984
▁Dad	-6985
▁Syr	-6986
▁Unt	-6987
▁awk	-6988
▁obl	-6989
▁que	-6990
▁unp	-6991
oning	-6992
osure	-6993
▁2011	-6994
▁Ford	-6995
▁None	-6996
▁Span	-6997
▁clar	-6998
▁fulf	-6999
▁melt	-7000
▁neat	-7001
▁peer	-7002
▁pref	-7003
▁sits	-7004
▁tong	-7005
▁warr	-7006
action	-7007
bruary	-7008
▁Ghana	-7009
▁begun	-7010
▁doors	-7011
▁drove	-7012
▁lifes	-7013
▁links	-7014
▁lions	-7015
▁outer	-7016
▁redef	-7017
▁roots	-7018
▁schem	-7019
▁unpre	-7020
parents	-7021
raction	-7022
▁borrow	-7023
▁ending	-7024
▁ethnic	-7025
▁fertil	-7026
▁fusion	-7027
▁prices	-7028
▁pushed	-7029
▁scores	-7030
▁senior	-7031
▁shaped	-7032
▁Central	-7033
▁General	-7034
▁affects	-7035
▁awkward	-7036
▁exposed	-7037
▁hitting	-7038
▁initial	-7039
▁liberal	-7040
▁magical	-7041
▁monitor	-7042
▁parties	-7043
▁picking	-7044
▁scanner	-7045
▁session	-7046
▁February	-7047
▁activist	-7048
▁category	-7049
▁detailed	-7050
▁insights	-7051
▁laughing	-7052
▁parallel	-7053
▁shoulder	-7054
▁Christian	-7055
▁adventure	-7056
▁dedicated	-7057
▁passenger	-7058
▁physicist	-7059
▁reduction	-7060
▁sentences	-7061
▁compelling	-7062
▁influenced	-7063
ris	-7064
top	-7065
▁Hy	-7066
▁SW	-7067
▁Sl	-7068
arre	-7069
ault	-7070
illa	-7071
kins	-7072
▁Bob	-7073
▁Tan	-7074
▁caf	-7075
▁enh	-7076
anned	-7077
eller	-7078
eters	-7079
ivery	-7080
owers	-7081
rency	-7082
▁Back	-7083
▁Jose	-7084
▁anes	-7085
▁dust	-7086
▁hier	-7087
▁hill	-7088
▁odds	-7089
▁wing	-7090
inated	-7091
▁chief	-7092
▁dirty	-7093
▁drawn	-7094
▁immun	-7095
▁legit	-7096
▁prize	-7097
▁pyram	-7098
▁recru	-7099
▁relax	-7100
▁sauce	-7101
▁skull	-7102
▁steal	-7103
▁ubiqu	-7104
▁ultra	-7105
▁wound	-7106
▁Oxford	-7107
▁Sunday	-7108
▁Within	-7109
▁conver	-7110
▁funded	-7111
▁muscle	-7112
▁powers	-7113
children	-7114
▁ceiling	-7115
▁dignity	-7116
▁entropy	-7117
▁footage	-7118
▁leather	-7119
▁persist	-7120
▁request	-7121
▁revenue	-7122
▁spreads	-7123
▁welcome	-7124
▁crossing	-7125
▁dialogue	-7126
▁distract	-7127
▁facility	-7128
▁openness	-7129
▁anonymous	-7130
▁confident	-7131
▁dependent	-7132
▁elsewhere	-7133
▁healthier	-7134
▁improving	-7135
▁privilege	-7136
▁suggested	-7137
▁telephone	-7138
▁curriculum	-7139
▁determined	-7140
▁governance	-7141
▁underlying	-7142
▁philosopher	-7143
▁probability	-7144
▁photographed	-7145
▁professionals	-7146
esh	-7147
see	-7148
two	-7149
▁0.	-7150
arah	-7151
fall	-7152
icks	-7153
long	-7154
onge	-7155
thet	-7156
▁Isn	-7157
▁LED	-7158
▁Mac	-7159
▁Oct	-7160
▁Ser	-7161
▁Sov	-7162
▁lux	-7163
▁sav	-7164
▁tro	-7165
▁unh	-7166
cking	-7167
clock	-7168
copes	-7169
field	-7170
igned	-7171
▁Blue	-7172
▁Tell	-7173
▁Walk	-7174
▁brut	-7175
▁drum	-7176
▁grat	-7177
▁irre	-7178
▁labs	-7179
▁limb	-7180
▁pink	-7181
▁rail	-7182
▁rats	-7183
▁reef	-7184
▁sket	-7185
▁vent	-7186
acular	-7187
edding	-7188
employ	-7189
engine	-7190
iously	-7191
makers	-7192
minute	-7193
ournal	-7194
▁Arist	-7195
▁Koran	-7196
▁Stage	-7197
▁White	-7198
▁jihad	-7199
▁pizza	-7200
▁silly	-7201
▁wheat	-7202
▁wider	-7203
related	-7204
▁adding	-7205
▁arrive	-7206
▁conven	-7207
▁hardly	-7208
▁lawyer	-7209
▁layers	-7210
▁monkey	-7211
▁poster	-7212
▁recept	-7213
▁scream	-7214
ventions	-7215
▁Obvious	-7216
▁Russian	-7217
▁Taliban	-7218
▁Whether	-7219
▁chances	-7220
▁citizen	-7221
▁clients	-7222
▁graphic	-7223
▁nonviol	-7224
▁ongoing	-7225
▁paradox	-7226
▁passing	-7227
▁pulling	-7228
▁colonies	-7229
▁focusing	-7230
▁inherent	-7231
▁judgment	-7232
▁keyboard	-7233
▁microbes	-7234
▁optimism	-7235
▁perceive	-7236
▁Microsoft	-7237
▁ancestors	-7238
▁backwards	-7239
▁gathering	-7240
▁sacrifice	-7241
▁supermark	-7242
▁supported	-7243
▁additional	-7244
▁hypothesis	-7245
▁simplicity	-7246
▁translated	-7247
▁expressions	-7248
▁breakthrough	-7249
AR	-7250
gu	-7251
asy	-7252
bod	-7253
hal	-7254
zan	-7255
▁Up	-7256
list	-7257
okes	-7258
thal	-7259
▁Bol	-7260
▁Nic	-7261
▁Out	-7262
▁Vir	-7263
▁bat	-7264
▁lun	-7265
▁wee	-7266
gency	-7267
iders	-7268
iment	-7269
▁Abra	-7270
▁Army	-7271
▁Dece	-7272
▁Josh	-7273
▁Make	-7274
▁Nord	-7275
▁cath	-7276
▁dies	-7277
▁duck	-7278
▁earn	-7279
▁glad	-7280
▁mall	-7281
▁stab	-7282
▁toys	-7283
▁trop	-7284
itudes	-7285
▁Steph	-7286
▁Super	-7287
▁Watch	-7288
▁disag	-7289
▁dough	-7290
▁eaten	-7291
▁fuels	-7292
▁items	-7293
▁nurse	-7294
▁spots	-7295
▁Listen	-7296
▁assess	-7297
▁catast	-7298
▁comedy	-7299
▁neuron	-7300
▁observ	-7301
▁settle	-7302
▁silver	-7303
▁smooth	-7304
▁traits	-7305
▁Aristot	-7306
▁Beijing	-7307
▁Israeli	-7308
▁Spanish	-7309
▁cigaret	-7310
▁concern	-7311
▁enables	-7312
▁ethical	-7313
▁fastest	-7314
▁helpful	-7315
▁implant	-7316
▁serving	-7317
▁smarter	-7318
▁soldier	-7319
▁statist	-7320
▁targets	-7321
▁texting	-7322
▁winning	-7323
▁December	-7324
▁accepted	-7325
▁answered	-7326
▁chimpanz	-7327
▁choosing	-7328
▁circuits	-7329
▁delivery	-7330
▁includes	-7331
▁innocent	-7332
▁organism	-7333
▁precious	-7334
▁refugees	-7335
▁remained	-7336
▁reminded	-7337
▁shooting	-7338
▁algorithm	-7339
▁disorders	-7340
▁documents	-7341
▁forgotten	-7342
▁frequency	-7343
▁miserable	-7344
▁ownership	-7345
▁suspended	-7346
▁synthetic	-7347
▁attractive	-7348
▁categories	-7349
▁industries	-7350
▁integrated	-7351
▁originally	-7352
▁psychopath	-7353
▁genetically	-7354
▁philanthrop	-7355
▁restaurants	-7356
▁specialized	-7357
▁representation	-7358
▁x	-7359
200	-7360
auc	-7361
dig	-7362
fin	-7363
fly	-7364
ket	-7365
ods	-7366
oor	-7367
▁FG	-7368
▁ho	-7369
agen	-7370
doll	-7371
ilit	-7372
mony	-7373
ober	-7374
olic	-7375
ords	-7376
ship	-7377
umes	-7378
walk	-7379
▁Amy	-7380
▁Bre	-7381
▁ain	-7382
▁biz	-7383
▁mur	-7384
▁nit	-7385
▁sla	-7386
▁wid	-7387
ffect	-7388
orida	-7389
▁2001	-7390
▁Jeff	-7391
▁Phot	-7392
▁anno	-7393
▁bars	-7394
▁butt	-7395
▁cash	-7396
▁eleg	-7397
▁gear	-7398
▁hire	-7399
▁pige	-7400
▁publ	-7401
▁sink	-7402
▁woke	-7403
mingly	-7404
utical	-7405
▁4,000	-7406
▁Colle	-7407
▁Holly	-7408
▁Jesus	-7409
▁chips	-7410
▁edges	-7411
▁exped	-7412
▁fires	-7413
▁fruit	-7414
▁glaci	-7415
▁joint	-7416
▁maxim	-7417
▁pause	-7418
▁tubes	-7419
▁weeke	-7420
keepers	-7421
▁Square	-7422
▁Uganda	-7423
▁burden	-7424
▁clinic	-7425
▁emerge	-7426
▁fought	-7427
▁insist	-7428
▁killer	-7429
▁makers	-7430
▁merely	-7431
▁pandem	-7432
▁upload	-7433
▁viewer	-7434
▁Florida	-7435
▁Without	-7436
▁analyze	-7437
▁bedroom	-7438
▁bizarre	-7439
▁consult	-7440
▁engines	-7441
▁federal	-7442
▁fortune	-7443
▁founded	-7444
▁habitat	-7445
▁harness	-7446
▁involve	-7447
▁kingdom	-7448
▁offices	-7449
▁opposed	-7450
▁promote	-7451
▁refugee	-7452
▁routine	-7453
▁suspect	-7454
▁tissues	-7455
▁warning	-7456
▁attitude	-7457
▁confused	-7458
▁domestic	-7459
▁incident	-7460
▁peaceful	-7461
▁plastics	-7462
▁proposed	-7463
▁reducing	-7464
▁suffered	-7465
▁Obviously	-7466
▁breakfast	-7467
▁diagnosis	-7468
▁extension	-7469
▁immediate	-7470
▁infection	-7471
▁nonprofit	-7472
▁objective	-7473
▁primarily	-7474
▁procedure	-7475
▁substance	-7476
▁difficulty	-7477
▁facilities	-7478
▁frustrated	-7479
▁operations	-7480
▁programming	-7481
▁transparent	-7482
▁experimental	-7483
▁photographer	-7484
▁universities	-7485
▁globalization	-7486
ari	-7487
asm	-7488
aws	-7489
eda	-7490
eps	-7491
oca	-7492
vis	-7493
▁33	-7494
▁Ap	-7495
▁Da	-7496
airo	-7497
ardo	-7498
free	-7499
greg	-7500
mill	-7501
rich	-7502
zens	-7503
▁Som	-7504
▁Sur	-7505
▁Tex	-7506
▁Tim	-7507
▁lob	-7508
▁sin	-7509
irect	-7510
olars	-7511
otted	-7512
stone	-7513
tical	-7514
▁Comp	-7515
▁Miss	-7516
▁Prof	-7517
▁Rock	-7518
▁Wait	-7519
▁bell	-7520
▁crew	-7521
▁cute	-7522
▁fung	-7523
▁mate	-7524
▁ours	-7525
▁quit	-7526
▁tech	-7527
atural	-7528
iences	-7529
mental	-7530
soever	-7531
▁Black	-7532
▁Brook	-7533
▁Mount	-7534
▁Power	-7535
▁array	-7536
▁funds	-7537
▁incor	-7538
▁monit	-7539
▁naked	-7540
▁nodes	-7541
▁shine	-7542
▁wired	-7543
itution	-7544
ughters	-7545
▁August	-7546
▁Daniel	-7547
▁Econom	-7548
▁Ladies	-7549
▁actors	-7550
▁dozens	-7551
▁emphas	-7552
▁garage	-7553
▁landed	-7554
▁legacy	-7555
▁marath	-7556
▁poison	-7557
▁regime	-7558
▁retina	-7559
▁trains	-7560
▁tunnel	-7561
▁weapon	-7562
cedented	-7563
▁Islands	-7564
▁artwork	-7565
▁hanging	-7566
▁inspire	-7567
▁manager	-7568
▁penguin	-7569
▁pursuit	-7570
▁rethink	-7571
▁sisters	-7572
▁smiling	-7573
aceutical	-7574
▁Somebody	-7575
▁conclude	-7576
▁drawings	-7577
▁generous	-7578
▁isolated	-7579
▁magnetic	-7580
▁managers	-7581
▁mobility	-7582
▁pointing	-7583
▁preserve	-7584
▁shifting	-7585
▁southern	-7586
▁unemploy	-7587
▁completed	-7588
▁factories	-7589
▁headlines	-7590
▁investors	-7591
▁paralyzed	-7592
▁preparing	-7593
▁accomplish	-7594
▁proportion	-7595
▁prosperity	-7596
▁remembered	-7597
▁retirement	-7598
▁whatsoever	-7599
▁spectacular	-7600
▁grandparents	-7601
▁unprecedented	-7602
▁pharmaceutical	-7603
DA	-7604
bi	-7605
jo	-7606
oe	-7607
ini	-7608
isy	-7609
mod	-7610
omb	-7611
yal	-7612
▁Bu	-7613
▁DV	-7614
▁ED	-7615
▁Wo	-7616
abul	-7617
keys	-7618
onic	-7619
oral	-7620
ownt	-7621
tail	-7622
thur	-7623
ulin	-7624
▁Acc	-7625
▁Bet	-7626
▁Jud	-7627
▁Lib	-7628
▁Mat	-7629
▁Pan	-7630
▁Que	-7631
▁Ray	-7632
▁cas	-7633
▁fib	-7634
▁gig	-7635
▁nom	-7636
▁tip	-7637
usted	-7638
venth	-7639
▁Coll	-7640
▁Mill	-7641
▁Show	-7642
▁Sudd	-7643
▁clay	-7644
▁dece	-7645
▁gang	-7646
▁geek	-7647
▁gras	-7648
▁leaf	-7649
▁lone	-7650
▁tear	-7651
▁whis	-7652
▁Medic	-7653
▁Organ	-7654
▁Texas	-7655
▁armed	-7656
▁biote	-7657
▁blame	-7658
▁delay	-7659
▁diver	-7660
▁favel	-7661
▁glimp	-7662
▁meals	-7663
▁nerve	-7664
▁route	-7665
▁sharp	-7666
▁skept	-7667
▁threw	-7668
▁upset	-7669
▁valid	-7670
ascular	-7671
▁Academ	-7672
▁Friday	-7673
▁Global	-7674
▁Norway	-7675
▁Scient	-7676
▁Soviet	-7677
▁commod	-7678
▁compos	-7679
▁expans	-7680
▁freely	-7681
▁matrix	-7682
▁native	-7683
▁panels	-7684
▁recess	-7685
▁strain	-7686
▁tongue	-7687
▁voting	-7688
▁waters	-7689
▁widely	-7690
▁Iranian	-7691
▁Neander	-7692
▁October	-7693
▁William	-7694
▁briefly	-7695
▁bubbles	-7696
▁dressed	-7697
▁enterpr	-7698
▁healing	-7699
▁mammals	-7700
▁mindset	-7701
▁observe	-7702
▁onstage	-7703
▁printer	-7704
▁secrets	-7705
▁writers	-7706
▁Palestin	-7707
▁accounts	-7708
▁aircraft	-7709
▁articles	-7710
▁attribut	-7711
▁calories	-7712
▁educated	-7713
▁fabulous	-7714
▁figuring	-7715
▁homework	-7716
▁infinite	-7717
▁economist	-7718
▁interrupt	-7719
▁intuition	-7720
▁physician	-7721
▁remaining	-7722
▁responses	-7723
▁capitalism	-7724
▁previously	-7725
▁ubiquitous	-7726
▁description	-7727
▁observation	-7728
▁conservative	-7729
▁intervention	-7730
▁straightforward	-7731
MA	-7732
elf	-7733
▁85	-7734
agon	-7735
amas	-7736
half	-7737
wind	-7738
▁191	-7739
▁Eth	-7740
▁Far	-7741
▁Had	-7742
▁Kev	-7743
▁Mag	-7744
▁Mel	-7745
▁Met	-7746
▁Net	-7747
▁Wol	-7748
▁upd	-7749
▁wet	-7750
erved	-7751
icial	-7752
icked	-7753
obile	-7754
osaur	-7755
▁mood	-7756
▁nerd	-7757
▁outs	-7758
▁panc	-7759
▁pile	-7760
dollar	-7761
ndrome	-7762
rolled	-7763
▁Cyrus	-7764
▁March	-7765
▁Under	-7766
▁alien	-7767
▁amate	-7768
▁ambig	-7769
▁arrow	-7770
▁award	-7771
▁chron	-7772
▁devil	-7773
▁donor	-7774
▁elite	-7775
▁excit	-7776
▁gotta	-7777
▁incom	-7778
▁punch	-7779
▁slums	-7780
igation	-7781
inarily	-7782
▁claims	-7783
▁firing	-7784
▁heaven	-7785
▁hiding	-7786
▁immigr	-7787
▁inches	-7788
▁triang	-7789
▁Charlie	-7790
▁College	-7791
▁Mandela	-7792
▁Stewart	-7793
▁arguing	-7794
▁beating	-7795
▁bottles	-7796
▁clinics	-7797
▁deliber	-7798
▁despair	-7799
▁elected	-7800
▁emerged	-7801
▁formula	-7802
▁fragile	-7803
▁hormone	-7804
▁ignored	-7805
▁miracle	-7806
▁shelter	-7807
▁tragedy	-7808
▁wealthy	-7809
▁Secondly	-7810
▁Suddenly	-7811
▁bathroom	-7812
▁currency	-7813
▁database	-7814
▁disabled	-7815
▁hardware	-7816
▁nowadays	-7817
▁vertical	-7818
▁announced	-7819
▁broadcast	-7820
▁expanding	-7821
▁performed	-7822
▁predicted	-7823
▁qualities	-7824
▁stability	-7825
▁transcend	-7826
▁ecosystems	-7827
▁illustrate	-7828
▁mechanisms	-7829
▁newspapers	-7830
▁profoundly	-7831
▁smartphone	-7832
▁terrifying	-7833
▁unconscious	-7834
▁personalized	-7835
▁grandchildren	-7836
BM	-7837
EC	-7838
OL	-7839
py	-7840
bye	-7841
ctu	-7842
idi	-7843
izz	-7844
ona	-7845
oug	-7846
▁CD	-7847
▁RS	-7848
cean	-7849
eday	-7850
fold	-7851
four	-7852
ilty	-7853
ylac	-7854
▁Lab	-7855
▁Men	-7856
▁Pop	-7857
▁Put	-7858
▁Roy	-7859
▁ads	-7860
▁aer	-7861
▁ash	-7862
▁lin	-7863
amine	-7864
ashed	-7865
ilize	-7866
inter	-7867
itage	-7868
izers	-7869
leton	-7870
produ	-7871
uther	-7872
▁2050	-7873
▁	-7874
e	-7875
t	-7876
o	-7877
a	-7878
n	-7879
s	-7880
i	-7881
r	-7882
h	-7883
l	-7884
d	-7885
u	-7886
c	-7887
p	-7888
m	-7889
y	-7890
w	-7891
g	-7892
f	-7893
,	-7894
b	-7895
.	-7896
v	-7897
k	-7898
;	-7899
&	-7900
I	-7901
-	-7902
A	-7903
T	-7904
q	-7905
S	-7906
W	-7907
x	-7908
0	-7909
j	-7910
B	-7911
?	-7912
z	-7913
N	-7914
M	-7915
H	-7916
C	-7917
1	-7918
:	-7919
D	-7920
Y	-7921
E	-7922
O	-7923
P	-7924
G	-7925
2	-7926
L	-7927
F	-7928
9	-7929
R	-7930
5	-7931
3	-7932
J	-7933
K	-7934
U	-7935
4	-7936
8	-7937
V	-7938
6	-7939
7	-7940
#	-7941
!	-7942
—	-7943
Z	-7944
/	-7945
Q	-7946
X	-7947
$	-7948
é	-7949
+	-7950
á	-7951
í	-7952
ç	-7953
=	-7954
%	-7955
è	-7956
–	-7957
ó	-7958
@	-7959
ü	-7960
ã	-7961
ö	-7962
ä	-7963
ø	-7964
)	-7965
ï	-7966
â	-7967
อ	-7968
	-7969
	-7970
à	-7971
ê	-7972
ë	-7973
́	-7974
(	-7975
_	-7976
£	-7977
Á	-7978
É	-7979
ñ	-7980
ā	-7981
ย	-7982
ร	-7983
่	-7984
*	-7985
¡	-7986
Å	-7987
Ă	-7988
Č	-7989
ē	-7990
Ť	-7991
€	-7992
你	-7993
葱	-7994
送	-7995
